[PAD]
[UNK]
[CLS]
[SEP]
[MASK]
<S>
<T>
!
"
#
$
%
&
'
(
)
*
+
,
-
.
/
0
1
2
3
4
5
6
7
8
9
:
;
<
=
>
?
@
A
B
C
D
E
F
G
H
I
J
K
L
M
N
O
P
Q
R
S
T
U
V
W
X
Y
Z
[
\
]
^
_
`
a
b
c
d
e
f
g
h
i
j
k
l
m
n
o
p
q
r
s
t
u
v
w
x
y
z
{
|
}
~
¡
£
¥
§
¨
ª
«
¬
®
°
±
²
³
´
µ
·
¸
º
»
¼
½
¾
Å
Æ
È
É
Í
Ö
×
Ø
Ü
Þ
ß
à
á
â
ã
ä
å
æ
ç
è
é
ê
ë
ì
í
î
ï
ñ
ò
ó
ô
õ
ö
÷
ø
ù
ú
ü
ÿ
ā
ć
Đ
Ē
ē
ę
ě
ğ
ĩ
ī
ł
Ō
ō
ŏ
ś
ş
š
ū
ƒ
ǐ
ț
ɑ
ə
ɛ
ɡ
ɪ
ʊ
ʌ
ʷ
ˈ
ˌ
ː
ˑ
˘
˛
˜
˝
́
̆
Α
Β
Δ
Ε
Ζ
Ι
Κ
Λ
Μ
Ν
Ο
Π
Σ
Τ
Φ
Χ
Ψ
Ω
ά
έ
ή
ί
α
β
γ
δ
ε
η
θ
ι
κ
λ
μ
ν
ξ
ο
π
ρ
ς
σ
τ
υ
φ
χ
ψ
ω
ό
ύ
А
В
Г
И
К
М
Н
П
Р
С
Ч
а
б
в
г
д
е
з
и
й
к
л
м
н
о
п
р
с
т
у
х
ч
ш
ы
ь
я
Ө
ִ
ַ
ָ
ּ
א
ב
ד
ה
ו
י
ל
מ
פ
ק
ר
ש
ת
ء
آ
أ
إ
ئ
ا
ب
ة
ت
ج
ح
خ
د
ذ
ر
ز
س
ش
ص
ض
ع
ف
ق
ك
ل
م
ن
ه
و
ي
َ
ُ
ِ
ّ
ْ
ک
گ
ہ
ی
ހ
ނ
ރ
އ
މ
ފ
ދ
ަ
ާ
ި
ު
ޫ
ެ
ް
ँ
ं
ः
अ
आ
इ
उ
ऊ
क
ख
ग
घ
च
छ
ज
झ
ञ
ट
ठ
ड
ण
त
थ
द
ध
न
प
फ
ब
भ
म
य
र
ल
व
श
ष
स
ह
़
ा
ि
ी
ु
ू
ृ
े
ै
ो
ौ
्
।
१
ক
ত
দ
ন
ম
য
র
ল
়
া
ি
ে
্
ਤ
ਨ
ਮ
ਰ
ਹ
ਾ
ੁ
ମ
ା
ஃ
அ
ஆ
இ
உ
ஊ
எ
ஒ
க
ங
ச
ஜ
ட
ண
த
ந
ன
ப
ம
ய
ர
ற
ல
ள
ழ
வ
ஷ
ஸ
ா
ி
ீ
ு
ூ
ெ
ே
ை
ொ
ோ
ௌ
்
ಕ
ಟ
ನ
ಪ
ರ
ಶ
ಾ
ಿ
ೆ
್
ക
ച
ട
ന
പ
യ
ര
ള
ാ
ി
ു
്
ං
ඃ
අ
ආ
ඇ
ඈ
ඉ
ඊ
උ
ඌ
ඍ
ඎ
ඏ
එ
ඒ
ඓ
ඔ
ඕ
ඖ
ක
ඛ
ග
ඝ
ඞ
ඟ
ච
ඡ
ජ
ඣ
ඤ
ඥ
ඦ
ට
ඨ
ඩ
ඪ
ණ
ඬ
ත
ථ
ද
ධ
න
ඳ
ප
ඵ
බ
භ
ම
ඹ
ය
ර
ල
ව
ශ
ෂ
ස
හ
ළ
ෆ
්
ා
ැ
ෑ
ි
ී
ු
ූ
ෘ
ෙ
ේ
ෛ
ො
ෝ
ෞ
ෟ
ෲ
ෳ
෴
ง
จ
น
ม
ล
ว
อ
ั
་
ད
န
ស
ា
្
ḍ
ḥ
ḫ
ḷ
ḻ
ṃ
ṇ
ṛ
ṟ
ṣ
ṭ
ṷ
ạ
ἀ
ἄ
Ἀ
ἰ
ὁ
ῖ
–
—
‘
’
‚
‛
“
”
•
…
′
″
⁄
€
₹
℟
℣
→
∆
−
√
∞
≈
≠
≡
≤
⋆
▲
●
◦
☆
♦
⚛
⚫
✈
⦁
⭐
、
。
い
か
が
け
こ
さ
し
す
た
て
で
と
な
に
の
は
ま
よ
ら
る
れ
を
ア
カ
チ
ト
メ
モ
ュ
リ
ル
ン
・
ー
ㄱ
ㄷ
ㅂ
ㅈ
ㅎ
一
三
上
世
中
之
九
事
五
京
人
仁
仙
令
伐
传
佛
側
傳
儀
元
光
兒
內
公
利
則
加
北
午
南
原
參
口
古
只
可
台
史
同
后
君
周
唐
善
四
国
國
土
地
城
基
堂
報
士
大
天
太
夫
奇
女
娘
媚
嬪
子
字
孛
學
安
宗
官
定
宮
家
實
寧
小
尙
局
居
山
岸
島
崇
川
州
帝
帶
平
年
府
張
後
徐
德
志
性
意
慶
成
政
文
斤
新
方
族
日
昌
明
昭
時
曌
書
月
木
本
李
村
東
楊
機
正
武
殿
氏
気
水
沖
沿
法
波
注
洋
津
洪
海
淑
渤
漢
濟
無
照
爲
玄
玉
王
生
発
白
百
皇
直
県
石
神
禍
紀
縣
羅
耶
聖
能
花
英
蘭
製
西
記
語
論
諸
謙
警
議
趙
辛
道
郡
都
醫
里
金
鎭
長
門
間
阿
院
陵
陽
雲
震
韓
食
馬
高
麗
龍
가
감
건
경
고
공
과
관
광
구
국
군
궁
금
기
김
나
남
내
녕
당
대
덕
도
동
라
려
로
릉
리
마
만
명
무
문
민
박
방
벌
보
본
봉
부
비
빈
사
산
상
생
서
선
성
세
소
송
수
숙
순
시
신
씨
아
안
야
양
어
여
연
영
오
옥
왕
용
우
원
유
육
음
의
이
인
임
자
장
전
정
제
조
종
주
지
직
진
천
촌
최
태
토
표
학
한
해
향
현
형
호
홍
화
환
황
회
후
흥
️
（
）
，
￼
👇
😉
🙂
🚂
🚉
🚌
🛤
🤔
##ි
##ද
##්
##ය
##ඥ
##ා
##ත
##ම
##ක
##ර
##ෝ
##හ
##න
##ො
##ු
##ල
##ජ
##ව
##ෙ
##ග
##ැ
##ී
##ට
##ෂ
##ස
##බ
##i
##a
##r
##d
##g
##e
##ඞ
##ඳ
##ේ
##ඩ
##ප
##ං
##ණ
##l
##f
##1
##6
##8
##0
##ඇ
##2
##7
##ශ
##භ
##o
##n
##ධ
##ළ
##ෛ
##5
##p
##x
##w
##s
##y
##m
##v
##c
##u
##t
##ඬ
##A
##h
##z
##ෞ
##ූ
##ෘ
##ඨ
##k
##ෑ
##අ
##ථ
##ච
##ඛ
##b
##4
##S
##K
##ඹ
##ෆ
##E
##ν
##θ
##ρ
##ω
##π
##ο
##ς
##9
##ඕ
##ඟ
##ඝ
##ä
##D
##R
##3
##é
##ඤ
##q
##ா
##ற
##ை
##ப
##்
##ó
##र
##ब
##्
##ह
##म
##न
##V
##ඵ
##ඉ
##ඈ
##එ
##ෟ
##ඏ
##T
##े
##व
##ी
##j
##I
##M
##O
##ਹ
##ੁ
##ආ
##Z
##C
##ඡ
##ෳ
##˜
##τ
##ά
##σ
##ι
##P
##Q
##L
##U
##X
##B
##ट
##ा
##ज
##J
##F
##️
##N
##š
##έ
##G
##ē
##ō
##W
##Y
##ṇ
##ḍ
##H
##দ
##릉
##ඒ
##ඔ
##국
##시
##대
##උ
##ं
##क
##श
##ඊ
##া
##ল
##ে
##ो
##ඃ
##ඣ
##ḥ
##の
##प
##द
##ඪ
##자
##사
##화
##ú
##á
##م
##ی
##د
##ہ
##ˌ
##왕
##×
##상
##의
##학
##ෲ
##ম
##ি
##´
##˝
##ˑ
##ि
##त
##भ
##ُ
##ت
##ِ
##ب
##َ
##ü
##ū
##ā
##˘
##ூ
##ர
##ம
##य
##ु
##±
##🛤
##ṭ
##ö
##°
##ר
##ק
##수
##촌
##च
##छ
##문
##정
##ñ
##ந
##த
##ி
##க
##ன
##®
##α
##δ
##ό
##κ
##빈
##ا
##н
##т
##о
##ш
##а
##д
##ṛ
##ல
##る
##²
##å
##ح
##ட
##ச
##ய
##ு
##ள
##வ
##ே
##ï
##स
##ृ
##ύ
##ن
##़
##в
##и
##ч
##ग
##ल
##ख
##Ζ
##Ο
##ô
##Þ
##í
##ඖ
##주
##성
##관
##부
##Í
##¬
##р
##с
##е
##й
##녕
##군
##ī
##ඓ
##¼
##к
##л
##у
##ௌ
##ध
##ः
##ç
##비
##ष
##ण
##ड
##で
##Đ
##태
##진
##ˈ
##ெ
##ஷ
##기
##ή
##ה
##ד
##ו
##ת
##м
##ل
##خ
##ر
##ṃ
##ś
##후
##지
##υ
##ඌ
##η
##μ
##ί
##Ω
##ج
##ّ
##ق
##و
##ص
##λ
##ṣ
##è
##â
##ة
##ַ
##ּ
##ত
##영
##공
##원
##−
##ε
##ø
##👇
##്
##ട
##പ
##ന
##방
##인
##ண
##ஜ
##황
##ங
##ू
##ě
##제
##금
##동
##향
##로
##ਾ
##ठ
##ऊ
##ँ
##æ
##ު
##މ
##ް
##ހ
##ޫ
##ރ
##ި
##އ
##ާ
##ழ
##ß
##യ
##ാ
##ി
##з
##ы
##마
##ै
##ඍ
##ਰ
##チ
##ュ
##ー
##ル
##씨
##্
##র
##ন
##१
##흥
##ौ
##구
##É
##ञ
##ீ
##만
##생
##∞
##⚛
##อ
##ม
##น
##ง
##ั
##ว
##จ
##÷
##¾
##ʷ
##ي
##ْ
##ك
##¨
##à
##나
##무
##メ
##リ
##カ
##ض
##ء
##Ν
##Μ
##Ι
##Ε
##라
##→
##려
##て
##い
##फ
##½
##회
##ì
##조
##선
##Α
##ḷ
##￼
##ொ
##õ
##я
##б
##ê
##ೆ
##ಟ
##್
##ಿ
##ć
##민
##한
##ា
##ަ
##육
##ş
##내
##ə
##안
##س
##た
##µ
##과
##थ
##ב
##י
##야
##ع
##х
##ש
##보
##토
##ف
##ز
##घ
##ÿ
##ę
##К
##형
##표
##ه
##이
##Δ
##́
##п
##ь
##ඦ
##γ
##ମ
##ା
##경
##ோ
##ರ
##ಕ
##ಾ
##º
##ɑ
##ː
##ʌ
##궁
##고
##당
##ł
##ɪ
##ஸ
##리
##장
##Λ
##א
##ל
##감
##ދ
##ನ
##¸
##φ
##ま
##か
##ئ
##は
##と
##す
##현
##よ
##し
##こ
##ª
##̆
##≡
##Β
##Κ
##れ
##해
##β
##ã
##г
##≤
##Æ
##ര
##ਨ
##ു
##ള
##ɡ
##종
##덕
##순
##گ
##˛
##벌
##¥
##け
##🚂
##ക
##ಶ
##오
##ț
##ஆ
##ë
##서
##🙂
##도
##ṷ
##신
##환
##उ
##ἰ
##χ
##়
##호
##î
##ʊ
##ù
##ش
##Ü
##ނ
##😉
##건
##ŏ
##⁄
##산
##أ
##ִ
##ン
##ಪ
##ެ
##ਤ
##န
##ک
##유
##ذ
##€
##Σ
##ò
##양
##직
##ล
##ψ
##に
##ඎ
##ད
##ト
##ਮ
##전
##³
##🚌
##ạ
##연
##∆
##세
##음
##ṟ
##ḫ
##ξ
##が
##ア
##ㄱ
##아
##な
##آ
##য
##✈
##ǐ
##용
##ğ
##ָ
##Ē
##פ
##្
##ស
##어
##임
##본
##È
##モ
##إ
##ḻ
##광
##ῖ
##С
##Р
##ɛ
##Å
##ক
##ら
##명
##ފ
##झ
##숙
##옥
##박
##송
##천
##ஊ
##ĩ
##봉
##מ
##ἀ
##☆
##න්
##ත්
##ක්
##ිය
##්ර
##ර්
##ාව
##ම්
##ින්
වි
##ස්
##ති
##ුව
##ීම
##නය
##ෙන්
##්ය
##හි
##ල්
ප්ර
##යි
##ිර
##ික
##යේ
##ාර
කර
##තු
##ෙන
##මා
##වා
සි
##තර
මෙ
##නු
##ාල
##ගේ
නි
##ණය
##දී
සහ
##ුර
##ෙස
##ිත
##න්න
##නි
##හා
##ුද
අතර
පි
##යක්
හා
හැ
##ුණ
වැ
##කි
##ුන්
##වි
වන
ලෙස
සං
කිර
සම
##ක්ෂ
පැ
##ත්ව
වූ
##යන්
ක්ර
##නා
##ියා
##ිබ
මෙම
##යෙන්
අව
##ීමට
##රි
කො
##හු
නො
##ාය
##දු
##ාර්
##යට
##ැන
##ාන
##ට්
ස්
බව
ඇති
##කර
##ත්ර
##ලි
විස
විය
වේ
දි
##දි
සඳ
ඇත
##he
##යා
##තා
##සු
##සා
##දා
##ලා
##කු
වෙ
##ංග
##ෙහි
කළ
දෙ
##වන
විශ
විසින්
##ද්
##ේශ
තු
##ද්ය
##සි
##තිය
##වර
19
##කා
සිට
##ෙර
ඔහු
දී
වර්
කරන
##er
##මි
සඳහා
වල
සම්
සා
##ැබ
##ාජ
අන
##වල
##න්ද
##මු
##සේ
කිරීම
##න්ත
##ාවේ
නැ
සැ
යු
පිළ
##ත්ත
දැ
##ීය
මු
##ඩා
ලබ
##රු
##ුණු
##in
##කාර
##මය
##00
##වේ
##on
හෝ
එය
##ෂ්
පව
හි
##කට
the
මි
##පා
##න්නේ
පරි
වෙන
අධ
සිය
##රා
##at
##ප්
##ඩි
##ණ්
කු
##ස්ථ
##තුව
##ණි
##ිරි
විද්ය
##an
තිබ
මේ
ලැබ
යන
##ටි
##es
එම
##ුද්
බල
ප්රති
රාජ
ජන
##ල්ල
##ණ්ඩ
##වැ
හැක
##ානය
##මින්
##වත්
ශ්ර
##en
භාව
එක්
##or
ගැන
##ොහ
##තාව
කොට
##හැ
##සර
##දේශ
මැ
##al
##ාග
දක්
උප
කල
රජ
##තික
##ංක
සමා
කි
##හන්
ක්
##ෙකු
##ෙක්
##ාප
##ළු
##ත්ම
වී
##ed
##ූප
කාල
නම්
පිළිබ
##ද්ධ
##යු
අප
##ුරු
##ාම
##විය
භාවිත
##ියාව
##ාස
එක
##න්ධ
##මණ
##ලය
##ar
##වුන්
බැ
සිදු
##කය
විට
##ර්මා
##ගින්
##ේෂ
##ධාන
##ic
##කින්
##ෝග
##ීන්
##ඩ්
එහි
##ුවන්
##ත්වය
වශ
යනු
##ියේ
පො
##නේ
අය
ව්ය
නිසා
බොහ
ආර
කැ
##ගම
##it
වශයෙන්
##පත්
ලදී
මහ
##ගත
##ව්
ගො
මෙය
තුළ
පිහි
##න්ය
ගැ
මත
##නයේ
##ලිය
##තුර
යො
ශ්රී
පහ
පිළිබඳ
##වීම
##ක්ර
පු
##nd
පමණ
බොහෝ
##ංශ
of
##වී
අනුව
පළ
හේ
තර
##මේ
බි
##ගෙන
හැකි
වඩා
ඔවුන්
ජා
ලද
දින
##වු
කිරීමට
සු
අනු
චි
##මන්
ස්ථ
සේ
##හාර
පසු
##ප්ර
##is
කා
##විධ
කට
වැඩි
වීම
##ත්මක
පර
##කාශ
##සුව
##න්නා
කෙර
##ion
ලබා
දු
වැනි
##ම්බ
20
##වර්
පුර
වසර
##ගත්
##ුදු
නිර්මා
##ing
in
පත්
##ුද්ධ
ලංක
මගින්
දේ
200
අඩ
##හර
##ත්තේ
චිත්ර
පැව
##ටු
##ලක
මා
රට
සම්බ
අධ්ය
පා
##දුව
නිර
තුල
##මුත්
##ොර
සමග
රැ
මෙහි
ප්රධාන
ග්ර
##ූල
##re
##තුරු
ජී
යුතු
##ෝක
බවට
##පය
අග
##මක්
##දන
විශේෂ
පාල
##ියානු
##ාවක්
පෙර
##දය
##as
##වූ
ක්රියා
ඔහුගේ
හම
අද
##ීත
වෙත
දේශ
වන්නේ
කරයි
සද
##ධ්ය
භාවිතා
##මැ
සම්බන්ධ
නිය
ප්රදේශ
##ගර
විශ්
විශාල
ඇතු
ඉද
හෙ
දක්වා
##ම්භ
##ිකා
නමුත්
##ත්ය
සාමා
සො
##ටන්
සිදුව
ප්රමා
##හෙ
රාජ්ය
##පි
##පට
##ර්ථ
##යින්
##නී
##ීම්
##ගල
and
##ටා
##හල
සිටි
ක්රි
ඒවා
##om
##ou
##සන්
ඇය
##ූර්
##ච්
භා
##ණයක්
නා
වා
##නට
##හිත
##ෝජ
##ීර
ගණ
##ලු
නව
##ාවන්
ලි
පසුව
##තන
##ියන්
වැඩ
##ෑම
##ීන
දිය
##හිර
##කම්
##ෙන්ම
චිත්රපට
##ර්ශ
ඉතා
##භාව
වර්ග
##ලේ
##විත
##ැයි
##යුතු
පෙ
18
යට
##ඳු
ගැනීම
##ස්ත
ක්රම
පිරි
යොදා
##ශ්ය
##බ්
අවස්ථ
වෙනස්
##චාර
ඉන්
to
ශි
වු
කරනු
##le
##වය
201
විවිධ
##තේ
##ශ්
##ායක
සමාජ
දෙක
##ජි
##වත
මහා
##කරණය
කෙ
##ල්ප
##යක
සදහා
##මර
ගෙන
නී
අභ
දෙන
දැක්
##ොන්
නගර
##වාස
##යේදී
##තනය
වලට
කටයුතු
##ාරි
කාර්
##ධනය
##ුවේ
තම
##කෘ
හේතුව
මාර්
ගත
##ක්ෂණ
ලංකාවේ
##ent
##දෙන
##තිවර
##ණු
##මට
##st
##ීට
##නම්
බ්ර
මූල
##ධි
ඉන්ද
##ට්ර
##දනය
ආකාර
##ව්ය
##ාවට
පිළි
විද්යා
##ළි
##ඛ්ය
##පාල
ගි
නිර්මාණය
##හස්
##මත්
##ුවෙන්
##ැන්
##el
##ඳින්
##am
##ාන්
සහිත
##ට්ට
##ශ්ර
පුද්
##පද
ප්රකාශ
##සිය
වලින්
ලෝක
##හාස
රජු
ආරම්භ
හැකිය
##ගය
වර
##et
මධ්ය
##හන්සේ
##සත්
##ර්ම
ඉහ
කලා
හමුද
##නික
##ීමේ
##සක්
##ගෙන්
වර්ෂ
හො
වෙයි
පැමි
භූ
##බි
කළේ
සංග
ජාතික
ශා
නිෂ්
මො
බෙ
##වින්
මුල්
##ගැන
සාමාන්ය
##කුණු
##වෙ
පිට
කිය
##තිහාස
වාර්
අම
##මික
අර
##ලෝ
තව
ඇත්තේ
##තී
##ක්ක
##තින
අන්ත
වූයේ
##ro
අත
පැහැ
භාෂ
##ct
##ඳුන්
##දිය
ලැබේ
නිෂ්පා
මිනි
සිං
##ග්
##රණ
අවශ්ය
ගොඩ
##නිය
##il
සමඟ
##ුවර
මුද
##ලින්
කෘ
ලේ
ප්රා
අත්
##දේ
##යෙහි
හැඳින්
ආය
##ol
වැද
රෝග
##පු
පද්ධ
##බා
ක්රී
අස
ක්ෂ
සංක
පුරා
සංස්
පැවැ
එක්සත්
##ෙනි
පත්ව
එසේ
##ධාර
බවයි
වග
##වයි
##ෝල
##ෙල්
තා
##ක්ත
##ක්ෂණය
යෙ
උත්
##ෝප
සොයා
ද්ර
ගත්
ගැනීමට
##ට්ඨ
කිරීමේ
##තුන්
##ation
මැතිවර
හර
අන්තර්
දර
රූප
##ජා
නැවත
අයත්
##රණය
##ෝධ
සැලක
පවතින
##නයක්
විද්යාව
##න්නට
##නයට
##ඩු
##මාන
##කො
th
අඩු
##ටුව
##කරණ
ගන්නා
##ch
නිද
වෙළ
මුහ
##යකි
තිබේ
කුඩා
##ir
දුර
පෙන්
##ග්ර
අයි
වහන්සේ
තවත්
රෝ
##ෙසේ
හඳුන්
වුව
සංඛ්ය
සමහර
තොර
##ම්ප
##වලට
##මැති
##ad
##න්ද්ර
පළමු
199
ඉදිරි
##සට
උදා
##විට
##ක්රම
බලප
රු
##ුත්
##වීමට
කිහි
##සුන්
ලක්
##ියක්
ආරක්ෂ
##ෙයි
වැදගත්
කණ්ඩ
පූ
සඳහන්
සියව
##වාහ
කෙසේ
ඉහළ
ස්ථානය
The
ස්ව
ලෙසින්
##පුර
මඟ
##ෙන්නේ
##කයන්
කෝ
කණ්ඩාය
##නක්
##ප්ත
කාලය
ලා
පෙන
කොට්ඨ
මාන
##ot
කිරි
##න්ත්ර
පාස
දකුණු
##ri
නිරූප
මීට
බහු
පමණක්
පාලනය
##ෝස්
කාර්ය
ආර්ථ
10
##ිතා
පැවති
ප්රථ
මෙන්ම
දැක
##දර
##ගු
ව්යාප
අධික
සී
පර්
පාර්
දේශපාල
යුද්ධ
වෛ
සැල
##නැ
##කිර
ක්රියාව
රස
for
##ස්ස
##ුවක්
##කාල
##තම
ඉතිහාස
පිහිටි
රා
##වල්
වෙනත්
කරමින්
ලො
ගේ
පෘ
ආස
ප්රමාණය
ඔවුන්ගේ
##දීම
##ුණි
ආහාර
##ම්බර්
##වරුන්
යන්න
##ොත්
##වැනි
සෙ
##ගණ
##iv
ආර්ථික
##ියට
##ෆ්
##ේක්ෂ
198
සිංහල
වර්ත
##සුම්
ගුවන්
##ce
##ැම්
සංස්කෘ
##ළඹ
යටතේ
##ිනි
##ly
##id
##ලර්
##ur
පැමිණ
##ුවට
ගෙ
තේ
##ter
##නෙ
##ෙකුත්
is
පවතී
##ow
දැන
නොහැ
කේ
තැන
යුග
ලදි
ඇමර
##ාලය
හිමි
##වලින්
##රිත
අප්ර
##ාර්ථ
වෙන්
බට
පුද්ගල
197
දක්නට
බෝ
##පති
##ස්ට
නොවන
17
ශක්
ප්රථම
මෙහෙ
##ිකාව
නිල
යම්
##ිකානු
ත්ර
##ර්ය
අධ්යාප
##රඹ
##වනු
15
නැත
එනම්
ලං
##නෝ
පී
විර
ආගම
ලබන
##ut
ඉදිරිපත්
##ස්ථානය
##වන්
වඩාත්
හැර
re
##ලී
යුර
##ul
තීර
##වාදී
වර්ධනය
කිසි
සමාන
චරිත
16
##වාද
දර්ශ
##ෂ්ඨ
##තින්
උස
වීමට
##ay
##ුවා
අර්
##ia
විශ්ව
##ස්තර
ලද්
##ජන
##වෙන
විශ්වාස
ඇතැම්
පද්ධතිය
හට
මඟින්
##මන
##යික
ක්රමය
දෙවන
තත්
##දුර
බවත්
##තුමා
##කාරී
කොටස්
##ිරාජ
ලබයි
##ීර්
##න්විත
සීම
සිර
##us
ඒක
ලංකා
පක්ෂ
නික
##දාය
##කරන
පිහිටා
be
පරිගණ
බටහිර
##චි
කළේය
හේතුවෙන්
අති
ඇතුළ
බා
අංශ
මාල
යැයි
මැතිවරණ
උදාහර
##ෂ්ට
අධිරාජ
නීති
##තාවය
##im
පදන
නොව
අවස්ථාව
##ලන්ත
යා
##පයක්
##ල්ලා
##හස
12
##න්ට
ඇම
සිටින
අධ්යය
පැවැත්ව
##ූර
සංවිධ
පිළිබඳව
සට
##ද්ර
සම්ප්ර
අර්ථ
තෙ
ජය
##කල
##em
අනෙකුත්
මණ්ඩ
##ාත්මක
##ෙස්
දෙස
දිස්
##පූර්
##න්තර
##ig
##ෝෂ
##os
වසරේ
196
##ාසය
පරිදි
##ers
ගැට
##තය
##ත්රි
විහාර
as
සෑම
සමන්විත
ලෝ
##ටත්
ඉඩ
ලිය
හැකියාව
##ාරය
පැහැදි
පිළිබද
ජීව
##ුවත්
මාර්ග
##ියාවේ
පවු
තෝ
මූලික
සර
##od
##ංගු
##and
කොර
##um
##ඵල
ඇගේ
කතා
විෂ
හේතු
##දුන්
පිය
##තීන්
##ලට
##ag
වාර්තා
##ංග්ර
නිරූපණය
##ැක්
st
අවුර
මෙන්
##මිය
ති
##යන්ට
මට්ට
ගෝ
විස්තර
##යෝග
සියලු
යාම
සංගීත
##හන
අනතුර
##නාව
ගමන්
##ලියන
තමන්
##හය
සංවිධානය
තොරතුරු
##ෙකි
කෙරේ
විවාහ
##භාග
මානව
අවධ
##ිතාන්ය
on
අමතර
බ්රිතාන්ය
කථ
නීතිය
දේව
or
අල
##ගි
පැර
ඊට
උද
##ේත්ර
අරම
ලද්දේ
##මාර
අවසන්
11
පද
##පො
##න්ගේ
මිය
##කරුවන්
ජල
ඉල
එර
යුතුය
##මත
##ra
වාය
සුදු
නිර්මාණ
වෘ
##ෂණ
##සින්
##පත
පියා
න්ය
ද්
වෙනුවෙන්
ද්රව්ය
##ඩිය
හරහා
##හැර
##ීමෙන්
ලබාග
ගුණ
##ගන්නා
ගොඩනැ
උතුරු
එහෙ
ජෝ
##න්තු
ඇරඹ
##සී
දේශපාලන
##ස්තුව
ඔහුට
හෙවත්
බුද්ධ
තිබූ
##ොක්
##කම
##ith
ඔස්
සේව
ගිය
##කළ
##ගලය
ස්වා
පවත්
ක්ෂේත්ර
##ik
සංවර්
ව්යා
හමුදා
##න්ඩ
සක
ජීවිත
##ොං
අභ්ය
ජනපද
##ist
පරිගණක
##යාගේ
භාෂාව
නොවේ
බලය
වෙළඳ
පොදු
වය
ක්රියාත්මක
සාමාන්යයෙන්
විදු
නිර්
රච
දිග
##දර්ශ
විනා
ව්යව
නොහැකි
ඉංග්ර
බෞ
##දින්
වර්ණ
194
ගු
##යන්ගේ
රි
##ීසි
බලා
නිෂ්පාදනය
නෙ
නම
ක්රීඩා
නිපද
##ංගික
##්ල
ශාක
##බල
ලොව
සාමාජ
##ච්ඡ
දෙවිය
කොළඹ
ස්වභාව
එසේම
දිස්ත්රි
පල
සුව
##ලිමේ
එයට
වර්තමා
##ණිය
නියම
##ටිය
##ර්මාන්ත
පර්යේ
සෝ
රසාය
##ෂ්ය
පහත
බෞද්ධ
14
එකක්
##යෙකු
##සයි
##දේශීය
පරී
ප්රතිඵල
ක්රීඩ
අදහස්
කරන්නේ
##ූන්
පාර්ලිමේ
##ෝන
##th
නමින්
ලංකාව
##ට්ය
මුල
ලැබූ
බුද
##රාධ
දහ
බිහි
##බර්
##ුණේ
පළා
##ෙක
195
තරග
ජනතාව
නැගෙන
මේවා
මාස
ප්රභ
සම්පූර්
සන්න
##ගැ
කාන්ත
පුද්ගලය
පැහැදිලි
##සිද්ධ
කෙරෙහි
##ශ්ච
13
වෛද්ය
al
යනුවෙන්
රාජධාන
##op
##ාර්ය
නැති
ජේ
දෙකක්
##ර්ග
රේ
අමතරව
##ජ්
ආයතනය
නාම
##වාරි
##est
හඳු
පිහිටුව
දේවා
##ip
##වාහි
රො
නොමැති
අංග
##පිය
යොමු
##ුවන
ලක්ෂණ
එල්ල
con
##ලාව
විම
##ටය
අභි
##වෘ
##හොත්
de
සැක
සිද්ධ
එහෙත්
හඳුනා
අනතුරුව
ජලය
ලේඛ
an
සෞ
කිහිපයක්
##ධන
##ත්වයක්
විද්යාත්මක
දෙම
නායක
කාලයේ
##ෂික
මෙසේ
සාමාජික
විජ
with
In
##ස්තු
##කයින්
නැගෙනහිර
##ැම්බර්
වැඩසට
##චනය
ජනප්ර
##ග්රහ
ගනී
##ess
වනු
නාට්ය
බැවින්
මිලියන
##ගැනීම
##ac
ව්යාපාර
එරෙහි
000
දායක
##ාර්ථක
by
මස
වට
was
ප්රමාණයක්
සියවසේ
##ලිම්
විනාශ
ජනා
තැ
##තියක්
තරඟ
##යකට
පරිසර
ඉදික
එන
##මයක්
එකම
##න්ථ
ශිල්ප
නගරය
##සල
පිල
සමාගම
තමා
මහතා
ඉවත්
##නුම්
ඩි
com
දිනය
නියෝජ
##un
##her
තෝරා
##වීම්
මුළු
##ෂ්ණ
##ධක
පන්
පිහිට
මෙහිදී
විශේෂයෙන්
හොඳ
##චල
තහ
පදනම්
වැට
කර්මාන්ත
ඇතුළු
##ෝට
##ver
##ies
භාග
##ාවි
දැඩි
##ක්ෂි
##බැ
##ච්ච
චන්ද්ර
##කයා
වුවද
පැරණි
චිත්රපටය
මෘ
යි
##ාශ
##විද්ය
##ොහො
හදුන්
සතුන්
##නුවර
දෙදෙන
ඇස
##හ්
නාමය
නිදහස්
ග්රන්ථ
රූපවාහි
##ේද
ඇතුළත්
##ගා
that
##හී
##මාව
##සව
wh
ස්ථාන
##ියේය
බලපෑ
පරමා
ගණන
ඉන්දියානු
##ain
උපා
##සන
රටවල්
තිර
ඩො
##ak
යයි
මග
##av
##කාලීන
පූර්
භාර
ධර්ම
##පැ
සාහි
##ෝල්
##මෙන්
තවද
මාධ්ය
##ලයේ
##ණික
ගීත
##ජන්
සෑ
අනෙක්
##හල්
සලක
##රදි
ඔබ
බො
##ලව
##ජී
##යන්තර
##ංශය
##දාන
ජනාධි
##සිං
ගල්
##ලක්
ඉංග්රීසි
විද්යාඥ
සූ
සිටිය
පවත්වා
##se
භෞ
ගිවි
##ab
##නයන්
##රිණි
භාණ්ඩ
පරා
ප්රහාර
##ලෙස
##සාන
උපත
##තිර
යුද
##ate
දත්ත
අවසා
##oc
##කොට
##තියේ
ඔවු
##සික
##if
##ත්යන්තර
##මී
පුවත්
සභ
##යුම්
##කඩ
මී
මිනිසුන්
සාහිත්ය
##ලත්
##පිට
ඉස්
##වාදය
සමී
යුධ
ප්රාදේශීය
පිලිබ
යුක්ත
යුරෝප
ජූ
##ථි
මෘදු
##කුණ
විකාශ
##ශී
##නයා
වලදී
අධිරාජ්ය
වර්තමානයේ
##යයි
යෝජ
##වරු
##වීමේ
තිබෙන
##ත්වයට
පෞ
ආදී
ජාත්යන්තර
##රට
##ෛල
කී
මුහුණ
සටන්
##ud
සතු
##යකින්
##ඳි
ආශ්ර
පහළ
සල
##ap
අඩංගු
තන
එමෙන්ම
කිරීමෙන්
වායු
බී
##ස්ත්ර
ගා
ලිංගික
තීරණය
##යෙක්
##ard
අවුරුදු
are
ලැබෙන
##සීම
##නයෙන්
ඔස්සේ
හින්
පම
සිතුව
##නිමින්
කලාප
නිකුත්
පළම
අතීත
අර්ධ
##ts
##ඩ්ර
රැක
##ගැනීමට
සුළු
ලෝකයේ
දෙමළ
කරන්න
ස්ක
ආණ්ඩ
##බර
ඇල්
සේවය
ඇමෙර
pro
දෙප
යුගයේ
විද්යාල
හැඩ
ජනප්රිය
කොට්ඨාශ
##ධා
පෙළ
##සුන
ලේකම්
##සිංහ
##ගමනය
නිස
##ගො
නූ
පුළු
##our
මන්ත්ර
දැන්
චී
තාර
දෘ
##යකු
උත්සා
##දැ
30
##ගම්
##දීය
##ලො
##ඤ්
සාර්ථක
##කීය
කැර
##ජු
##ෙව්
කාලයක්
සත්ව
කරුණු
එකි
ඉතිහාසය
ස්ට
##ොට
පාර
se
කාබ
රජුගේ
භෞතික
##කාංග
සත්
##ෝර්
##ාපනය
25
##දක්
අවධානය
පට
ඉහල
නාග
හතර
එකිනෙ
##ිකාවේ
අතුර
ප්රමාණ
යටත්
ආගමික
ගත්තේ
රංග
දිස්ත්රික්ක
සර්
##ස්ට්
හිමික
පෘථි
පර්යේෂණ
##og
දළ
සකස්
##කූල
##ගාර
##ුද්ර
උසස්
ගනු
සත්ය
පවා
දියුණු
ක්රියාවලිය
##ිණි
ප්රදේශයේ
##තක
##ංච
සංචාර
##සියම්
තර්
වෙනුවට
අන්
මරණය
අදාල
ඕන
පැමිණි
ඉන්දියාවේ
තනි
##චාර්ය
කොටස
අවම
##ගහ
##තිහාසික
තිබු
දශ
පුළුල්
##ෂණය
##ීමක්
හඳුන්වා
උෂ්ණ
පටන්
සිදුවන
100
රටවල
##ුරින්
කඩ
ඇමරිකානු
කියා
##ාවෙන්
එන්
අධ්යයනය
##ද්රව්ය
මිල
තත්වය
ඡාය
##මිනි
##ity
##දක
මතු
රූ
කොටසක්
සෘ
රජයේ
බැඳ
පාර්ලිමේන්තු
තරම්
සියළු
එහිදී
භි
පහසු
මැද
##නයි
ශ්රේ
සේවා
මෘදුකාංග
##මනා
මුද්ර
චීන
##පී
ප්රසිද්ධ
##සං
ග්රී
අධි
විද්යාලය
##රිය
නාල
මෙයට
##ල්පය
යුත්
ව්යවස්ථ
##ගී
##rom
යැ
##නො
##ර්මය
ශක්ති
ස්වර
su
##ලේෂ
##ප්ප
ඊජි
ජු
පන
##සය
en
##ාරූප
##ld
සමයේ
ශක්තිය
රජය
##යෝ
එකතු
ලක්ෂ
එරෙහිව
ආකෘ
කාර
මූ
##ric
##ම්ස්
නිව
තබා
##යෝජ
කිරීම්
##කරු
##දායික
ලබන්නේ
නිෂ්පාදන
ආකාරයට
##්රිය
සාධක
##ස්ථාන
තුළින්
193
ජි
තුන්
ස්ත්ර
දරුවන්
දැම
රාජව
සම්බන්ධයෙන්
සැලසුම්
##මුඛ
ක්රියාකාර
ex
මැතිවරණය
උත්සාහ
චල
සහභාග
කණ්ඩායම්
අංක
සුර
##ටර්
අතරතුර
මල්
මනෝ
##ූහ
කෙරිණි
දැක්විය
සින
ගොස්
ඉදිර
##බෝධ
##විල්
##ිතව
තුන
##ට්ලර්
තෙක්
ගම්
කලේ
පද්ධති
ධා
පොළ
##ැති
##ටම
හිම
අධ්යාපන
##කයේ
##කෝ
සමත්
දෙවියන්
විසිනි
සංවර්ධනය
ඉක්
##pe
##ිකට්
රූපවාහිනී
කෙරෙන
##ක්රමණය
ආයතන
සම්පූර්ණ
ආදිය
##වෙන්නේ
##ාන්තර
සංඛ්යා
හිට්ලර්
##සුම
##පේක්ෂ
br
##සිර
තැබ
පත්ර
දුන්
වූහ
ප්රංශ
##නායක
සිත
##ෑන්
දුම
කළහ
##වික
##ැල්
##වරයා
ප්රදේශය
බර
වර්ෂයේ
අන්තර්ගත
මැයි
##ුරුෂ
ඉන්දියාව
නූතන
21
##ත්න
තිබුණි
අගය
දැනට
ඔක්
මධ්යම
බුදු
රෙ
සියල්ල
පහර
ගැනීමේ
##යුර
පුහ
##ive
##කල්ප
ජනයා
දීම
යෙද
ආසන්න
ආදි
##ේල්
22
##තෘ
මුදල්
ගෘ
සූර්
පරිවර්
ඡායාරූප
භික්ෂ
ගෞ
ආරක්ෂා
නිලධාර
අවස්ථා
##ඤ්ඤ
විද්යුත්
##වුරු
##ang
වේද
ඓතිහාසික
##රය
ලැයි
##ෙල
ප්රදර්ශ
කිහිපය
wik
මාර්ගය
ඉලෙක්
උදාහරණයක්
නිවැ
##යන්හි
##කර්
සැලකිය
##ණා
ග්රහ
##මානය
බැල
හමුදාව
නිළ
රාජකීය
පේ
පැතිර
අවසාන
මාර්තු
පෙන්වා
මන්ත්රී
චෝ
##ම්ප්ර
ව්යු
භාෂා
##ඹුරු
ක්රිකට්
කොට්ඨාසය
හී
තාක්ෂණ
ඉලෙක්ට්ර
##ළුව
ඉල්ල
##ිතය
##ාරා
මන
අපේක්ෂ
පීඩ
සම්මත
සංඛ්යාව
බු
##ෂා
##ical
ගොඩනැගි
දිනදී
ඊජිප්
මව
සපය
##tt
වළ
එස්
192
අවි
##දුම්
##කයක්
නිරී
ඉහත
##වෘත
වංශ
ශත
පැන
පාරි
##ual
##ගිය
##පසු
ගුරු
ඇල
අධ්යාපනය
ආකාරය
පස්
##ෙහිදී
##වේද
බෙදා
අම්
විෂය
එමගින්
හමුව
බිඳ
##ීකරණය
අතරින්
පිණි
ශර
විද්යාවේ
පැවත
දක්වන
##හසු
##ine
අක්
##ශේෂ
රැස්
උඩ
පුරුෂ
##ස්ම
යුද්ධය
රසායනික
ආදාය
වේග
සන්නි
කෙන
##ල්ස්
යුගය
##ich
##ගෙ
##ක්ස්
දැකිය
සංකීර්
කල්
නිම
##ද්ගල
ජනගහ
වගා
සුදුසු
ඝා
ට්ර
අතින්
##චන
ප්රව
භාවිතය
සියවස
##ill
සංකේ
වනුයේ
දිස්ත්රික්කයේ
දා
##තිරි
කළු
pl
##ලිස්
තත්ව
දුම්රිය
##ංජි
හැදින්
ජනාධිපති
ලී
##කිරීම
කෙටි
තාප
රාජධානිය
වනාන්තර
මිනිස්
##සියන්
##ද්ද
පාලන
සෛල
##වරණය
මොවුන්
ලාංක
සීමා
##රළ
අරමුණ
අනා
මෙවැනි
##ද්ගලික
සබ
##න්දේ
අක්ෂ
##ක්ති
වන්නට
කථා
##දුරටත්
##ේප
සටහන්
ඕනෑම
##දුරු
##ial
##තාවක්
##ost
කණ්ඩායම
කරුණ
විදුලි
අඩි
වැඩිම
කම්
ඝන
##වක්
##ස්ට්ර
අවබෝධ
කුම
##ore
පමණි
ඇයට
##ant
##ෝස්තු
අවසානයේ
##ත්ති
මිනිසා
St
##්රා
ආර්
සංස්කෘතික
##ලික
##ගුණ
##කිය
##දින
උදාහරණ
හයි
##ුම්
එකල
මෝ
වැළ
##art
##සෝ
සාපේක්ෂ
පෞද්ගලික
##වහන්සේ
වුයේ
ආයු
සදහන්
ඇතිවන
භූමි
වාස
ෆ්ර
##ත්තා
##කේ
වෙමින්
කතාමා
යෝජනා
##ew
##ෙකුට
රතු
මුලින්
මිශ්ර
24
##ාවලිය
කරග
නගරයේ
ඒවායේ
බේ
ප්රකාශයට
සමස්ත
ත්රි
එවැනි
වටා
##රුම
##වන්නේ
##ත්යා
Ch
අඟ
##ුම
##ගන්
සැම
ද්වි
සෞඛ්ය
වො
විවෘත
මණ්ඩලය
රන්
කරගත්
වෙතින්
හැසිර
සැලකේ
ජීවත්
වුවත්
මුහුදු
වර්තමාන
ජාතීන්
සූර්ය
##ටෝ
ව්යාප්ත
from
අතුරින්
මෙහෙයුම්
##ත්වන
වෙබ්
තාක්ෂණය
පූර්ව
තැන්
බාල
##ලෝක
නිවැරදි
දිගු
ගෘහ
##ටුම්
පාසල්
හින්දු
ලෙසද
##ෝගික
ටී
කරගෙන
සාම්ප්ර
මහජන
මෑ
පිණිස
##හත්
##pp
මරණ
නර්
ප්රශ්
අගෝස්තු
වස්තුව
චරිතය
##ොස
##ib
කාණ්ඩ
යානය
ඉටු
මම
##ර්ණ
ස්ප
කින්
සැපය
##ට්ස්
mat
ප්රමුඛ
##ණයෙන්
ආරක්ෂක
ප්රතිපත්
වින්
සිවිල්
විරුද්ධ
අණ
මුස්
කලාව
ආණ්ඩු
##කදී
ලැබීය
තවදුරටත්
##ාවිද්ය
පිලිබඳ
සැප්ත
##වුම්
කඳු
විශ්වවිද්ය
##තරම්
අයිති
##දෙස්
##ph
##ian
පස
2007
කිරිම
සිතුවම්
උළ
##ust
ඡන්ද
අට
##ගෝල
ශරීර
##නුම
ජනප
අල්
නොවැ
රාජ්යය
මාර
##හේ
සමාජය
තො
තී
දුර්
##qu
සම්මාන
50
ඔක්ත
රැජි
##බු
ඉංජි
II
##all
සතර
ගනිමින්
##සර්
##ංචි
සිහි
ජනවාරි
අප්රේල්
ඉංජිනේ
##දිග
සැප
ලිපි
ඉතිරි
ඇතැයි
කාම
##කරුව
සෙන
##ඹු
ආධාර
##තට
නැමැති
වෙති
අමා
##පන්
##ණන්
##ment
##පල
ප්රතිකාර
තත්ත්වය
ඉස්ලා
ජපා
##ටිනා
සිදුවේ
නිශ්ච
කත
අභ්යන්තර
සුවි
තුලින්
මාලි
##ගැන්
##ක්ෂේප
ඇතුලත්
හොඳම
නුවර
අක
විශ්ලේෂ
##පික්
කොරියානු
පළාතේ
##පර
##තියට
සිටියේ
##තුවේ
191
##ඩියෝ
ලැයිස්තුව
රථ
##gh
##ාලි
පෘථිවිය
ශුද්ධ
සභාව
හැඳින්වේ
සිරි
ප්රේ
සාක්ෂි
2008
23
අනාව
කිසිදු
##ියක
##හුව
මෙහෙය
යුරෝ
ජනපදය
##ියෙන්
බිම්
කාන්තාවන්
##ඩුව
පිරිස
බලපෑම
පෙනී
##කථ
කෘෂික
වීමේ
පරමාණු
##ාවල
උදෙස
මුස්ලිම්
##තක්
##වතුන්
සැළ
පුරාවිද්ය
##භාවය
ලෙ
කාලීන
රුස
##igh
ඒකා
ගෝල
කිසියම්
te
දෙව
කැන
කුල
##ell
මරා
පරාජ
ශාස්ත්ර
බලපෑම්
පාසැල්
අනි
##ect
සාක
පිරිසක්
ශිෂ්ය
ඉදි
වස
චිත්රපටයේ
පිළිවෙ
ස්කන්ධ
මන්ද
not
ජෛ
##සාර
අනුගමනය
##ණයට
සැප්තැම්බර්
##age
අනුරාධ
දසුන
වෙතත්
ශබ්
දැකගත
ව්යාපෘ
වටිනා
පරීක්ෂ
##දාළ
අවස්ථාවේ
##ණයේ
##ුන්ගේ
##ාන්ත්ර
වෛර
වයස
ඵල
දැර
දේශීය
##ෙකුගේ
ප්රවාහ
සැබ
##ොස්
ඇන්
තබ
කුරු
ජාල
ඩී
##ng
සිදුකර
සන්නිවේ
##ෂි
විවේ
##per
##මානු
##ber
එකතුව
ස්වරූප
අස්
අල්ලා
විශාලතම
රාශ
දර්ශන
##ෂධ
සිදුවූ
පැවැත්වුණු
පුත්ර
##ear
##වෙයි
ශාල
##පූ
##ිරු
ක්රියාකාරී
උපකරණ
##ition
රැගෙන
ධාර
##ීමත්
ගෞර
උදෙසා
වීමෙන්
උන්
පෙබර
සරල
එව
බන්ධ
##ත්වයෙන්
තෙල්
ජෝන්
වීර
වැඩසටහන්
##ෙය
at
##මක
##න්තුව
ගණිත
පූජ
අසා
පාඨ
දෙපාර්
එත
##ිකයන්
තරංග
පත්විය
විහාරය
අනුරාධපුර
දූ
ප්
##සියාවේ
ජූලි
##ඩය
##ුරා
සමු
පවස
සාගර
කොළ
තවමත්
ලැ
##රී
එල්
වෙරළ
##වීය
දිනා
##ෝදර
##වට
ඇද
මස්
බාහිර
##්යා
පිලි
මහත්
රඟ
මෙලෙස
දිශ
සිදුවිය
##ොල
ප්රාන්ත
තාරකා
මින්
අදහස
ධන
ප්රචල
##විධාන
දෙසැම්බර්
දීමට
විනි
කඳ
##බාහු
##ාවක
ch
නයි
හානි
ජනපදයේ
එංග
##ov
පිළිබදව
##ඥා
##ure
##ද්වී
සාම
සහභාගී
##ක්රමණ
us
කළමනා
සෙන්
ප්රතිසං
සාම්ප්රදායික
පරිවර්තනය
27
ගිනි
පුරාණ
##භා
##තනයේ
##ංකාර
##ated
ලෝහ
අයුරින්
විරෝධ
ජර්
##ලන්තය
චු
##ියු
##end
##ික්
##ත්තර
ගත්තේය
ආවේ
සම්ප්රදාය
##යාට
##ංගල
##pt
ගල
ගංග
##සැ
ප්රජ
එයින්
##දුනා
රේඛ
සංගමය
##ම්ම
##්ව
ඉන්දු
විකාශය
ඇයගේ
පෙබරවාරි
##ලාශ්ර
##edia
##ුණා
ප්රබල
##ටික්
which
කරා
සම්පත්
අතිශ
ගණනාවක්
යහ
පෙන්නුම්
දර්ශනය
##ort
##වාසික
සතුව
නිව්
ඉරා
කොන්
පරිපාල
ප්රතික්ර
2006
පැවතු
##ord
බොහො
නොමැ
සංස්කෘතිය
##ල්ලේ
රජතුමා
##දීමට
##ගෝ
##ින්ද
යාමට
2009
අන්තර්ජ
විජය
නොවූ
සහෝදර
අපි
මයි
බලන්න
කැටය
ජර්ම
##ere
##පෙන
රාජවංශ
කිලෝ
නිදහස
##000
ක්රමයෙන්
2010
##යන්ගෙන්
##land
##ුණුව
අලු
##ිකව
##ජාතික
නිෂ්පාද
විචාර
රචනා
ඖෂධ
##ත්රා
අරා
##ෆර්
form
න්යෂ්ට
මධ්යස්ථානය
අරමුණු
##ලන්
ගැනි
එළ
##මති
මැන
සන්ධ
##තාවයක්
දක්වයි
##ttp
ආලෝක
කෞ
comp
බර්
කර්
ප්රචාර
යුදෙව්
කුර
සුවිශේෂ
##මීට
##විනි
ඔක්තෝ
##ub
යානා
හදුනා
##ධිර
විභ
තුනක්
http
it
##ාව්ය
##නිසා
org
දූප
##ොල්
##ඳුම්
කුමරු
උද්ය
##න්දු
ඕස්ට්ර
තරුණ
ග්රීක
විදේශ
##ියාන
##ලියම්
පැවස
##ාග්
2000
ක්රමයක්
තනතුර
ඝාතනය
ප්රවේශ
හු
මහනුවර
##රුම්
අවස්ථාවල
##ගොඩ
un
දක්ෂ
##ther
යාන්ත්ර
කෙරුණු
ගණනක්
##ලිම්පික්
ලු
##ංස
ක්රිස්ත
සාකච්ඡ
අස්ථ
##යිඩ්
නොල
##තල
විශි
##ීමේදී
26
##වාර
පිවි
සංකේත
##හිමි
ලැබු
##ory
පිරිමි
සියලුම
ඔලිම්පික්
මානසික
##ave
උතුර
බදු
යන්
විසි
වෙනස්කම්
ලැබුවේ
ත්
ප්රයෝජ
##යෝගී
their
අලෙ
උෂ්ණත්වය
##ගාම
වූවා
භූමිය
බුදුන්
කුමාර
පහසුව
චක්ර
යන්ත්ර
##ත්තු
ප්රතිශ
මතය
පෘතු
සංවිධාන
රඳ
වචනය
ජයග්රහ
සොහ
##රික
##ායා
##ීන්ගේ
සිරුර
##ාවා
රෝම
අවට
එවිට
##වුර
විහි
2005
ලියා
කුමර
##ෙට්
##ේර
ප්රතික්ෂේප
##ary
සහාය
ඔවුන්ට
සංකල්ප
සජී
කිරීමයි
දේවාලය
28
##පතිවර
##ket
##ීමයි
අගනුවර
##ිලි
##ධික
##දානය
##ඩෝ
##ඟා
##මැත්ත
මීටර
ලෝකය
ප්රතිසංස්
අහ
##ree
සමහරක්
රුධිර
පුද්ගලයන්
190
මැතිවරණයෙහි
සොහොන්
කරති
වසරේදී
අපහසු
පියවර
ආවරණය
##නාත්මක
##ong
ගණන්
වන්ද
වගක
##වස
ආක්රමණය
ප්රචලිත
නු
##රූප
ගැහැ
අදාළ
##කී
##ක්ෂක
ත්රස්ත
සංයු
පැළ
දෙනෙකු
කේන්ද්ර
ජාන
වරක්
පිර
ලිපිය
අසල
තහවුරු
ඩොලර්
යළි
හුව
##ල්ඩ්
ගැල
1960
සඟ
නිතර
සම්මානය
ඉත
ඉල්ලා
##20
වරට
සිංහ
ඕස්ට්රේ
##රැ
##රිම
##ප්රා
බෝම්බ
ගාය
සිදුකරන
##රුව
සංකල්පය
##ලන්තයේ
පාද
මණ්ඩල
##බද්ධ
##ry
##rou
සංඝ
බෙහෙ
##so
##ක්ඛ
##යෙනි
189
තිය
##පොර
##යිට්
එකඟ
දකුණ
ස්වය
සිනමා
##රේ
වෙළෙ
අනාගත
Ind
##ok
##ක්ය
රෝගය
සංස්ථ
##ජය
##ඩර්
අන්තර්ජාතික
හමු
සමීප
සලකා
සදා
##පර්
ad
එබැ
දෑ
##ීන්ට
අපරාධ
##ction
##ence
##rit
##ස්ගේ
##න්නන්
කොට්ඨාස
නොවැම්බර්
නොමැත
##නන්ද
ප්රජා
##දනා
##ඟින්
සංඛ්යාවක්
##ධර්ම
2015
Th
##ණිජ
##cl
කලාපය
##irst
පරීක්ෂණ
##ations
සංකීර්ණ
##පාදනය
පහසුකම්
were
2012
නාව
##ෝන්
ඒකක
අවුරුද්
##ගනු
##සල්
සහිතව
පෙනේ
le
##ff
මුහුද
ගබ
##ge
ප්රතිචාර
##ර්ඝ
රටේ
40
මත්
##හට
##බ්බ
දෙදෙනා
අන්ද
බහුලව
##යන
සිල්
භූම
##ියානි
ලංකාවට
නිසාය
ඉගෙන
වහන්සේගේ
පළමුව
##ast
##ත්තිය
විකිර
සොහො
##aw
##ල්ලක්
පසුකාලීන
විශේෂිත
Un
ගස්
හෙයින්
දෙනා
හිට
##වූයේ
ඔවුහු
##ෙමින්
##ච්චි
හුවමාර
එම්
##ෙන්නට
සංර
##ank
ක්රියාකාරකම්
නවී
හිත
##කයෙකු
දුර්වල
එබැවින්
විලා
භාවිතයෙන්
හැඳින්වෙන
##du
ගියේය
##ide
##ථමික
උත්ස
කොට්ඨාශය
වෘත්ත
##ාවර
මීටර්
##ipedia
සබඳ
ස්වයං
##iz
කැප
අණු
වචන
සම්භ
විධි
##ස්ක
සැත
නියෝජනය
##oun
ලේඛන
කතෝල
29
sh
නේ
ඇත්
##මුන්
ඉන්දීය
මූලද්රව්ය
ක්රිපූ
මොහු
තහනම්
ජෛව
පටි
බස්
##තියි
ප්රාථමික
##ටික
##ඟු
##කාරක
##ational
විද්
වියද
##ාපිත
පෝෂ
දෙවි
##ame
##පුම්
##tern
##ාන්ත
##පස
තිබිය
සුළ
ලාංකික
විප්
##ූයේ
ලකුණු
අවකාශ
##ans
ඉංජිනේරු
ප්රවේ
තත්ත්ව
දො
වාසය
##ලූ
කෞතු
##ක්කය
කියන
##වර්ධන
හෙළ
ආරක්ෂාව
ගෙන්
2014
ඔහුව
හරි
##භය
පුහුණු
මනු
##වද
සමය
2011
පොළො
කැටයම්
##වක
##වයක්
##ස්තා
සැලකි
දෙයි
පූජා
ඉතාමත්
තාක්ෂණික
පින්
##50
2004
හැඳින්වෙන්නේ
උත්සව
ජර්මන්
විකි
සාපේක්ෂව
##ාවූ
සංයෝග
##ෂය
මෙමගින්
ටෙ
උරුම
##ප්පු
හඳුන්වනු
##වරුන්ගේ
බුද්ධි
විශ්වවිද්යාල
##ශි
කරන්නට
##ට්ටු
බලාපොර
ඔෆ්
සෙස
පක්ෂය
උපන්
සංගීතය
ස්වභාවික
සිටියේය
ප්රදර්ශනය
අයිතිවාසික
අමාත්ය
කාර්මික
##නියි
විශේෂයෙන්ම
##ish
වර්ගීකරණය
මෙරට
පවත්වාගෙන
හයිඩ්ර
##ේදය
නිවාස
නොද
##වලදී
වාර්තාව
he
##ණයන්
##ome
ඉන්පසු
sc
##ාකාර
වීමත්
තැනැ
res
කාව්ය
ජපන්
සමාගම්
##නයේදී
පරම්ප
##නුකූල
##ර්යෝ
මට්ටමේ
බොහොමයක්
ධර්මය
සන්
හවු
##ප්තිය
බැවිනි
යෙදු
හඳුන්වන
all
Eng
පවුලේ
තිබිණි
පාෂා
අධ්යයන
first
##ිරිය
කිරීමේදී
##ශීලී
කතෝලික
කුසල
දියණිය
අතීතයේ
හද
##ous
##රාව
අපට
රාම
##ාහ
##ass
වාර්ෂික
නිරීක්ෂණය
ගම
ගුර
##කැ
ගෝත්ර
ඉදිරියට
##දායක
##බන්ධ
##ියෝ
පරිමා
කෘති
කලේය
ser
මෙයින්
ක්රිස්තු
යුරෝපයේ
have
ටයි
ඉදිකිර
සිතිය
හිස
ගොවි
මූලාශ්ර
උණු
සති
##ින
බහුතර
ඉතිහාසයේ
වන්න
##cc
දැක්වීම
දුරට
තොරව
මතුපිට
##ගල්
නියු
ජීවිතය
නියෝජිත
ළමා
දෙයක්
ඉඩම්
ප්රතිඵලයක්
##ාංග
විධ
##විණි
පරිභ
අනුපා
##ස්ටර්
පදය
1970
ගිවිසුම
##ult
කාබන්
රැජින
##ධීන
අක්ෂර
බණ්ඩ
##ork
පිහිටුවා
ව්යුහ
ශතවර්
##orld
සමාජයේ
ඇමෙරිකානු
පොත්
188
2013
යනා
##ළුවන්
##ුවල
අවසර
බොහෝවිට
කෘතිය
තමන්ගේ
ආශ්රිත
##විර
##බව
##න්දා
දිවයි
අලංකාර
තැන්පත්
කක්ෂ
ගන්න
##වේදී
සමූහ
##දේශය
cont
##බාධ
හඳුන්වයි
##යක්ෂ
##ාරිත්ර
හොඳින්
කිරිමට
වෙස
##වුණු
##ඝ්ර
පුන
බිරි
##ක්තිය
පවුල
ස්වාධීන
##විලි
මැදි
වාණිජ
ස්වාභාව
තෙර
පාර්ශ
නොලැබ
##ෑම්
ස්පා
##වියට්
න්යාය
##ire
ශ්රි
කාන්
කෞතුකා
##ෙන්න
##යෙන්ම
බවය
දුටු
දෙපාර්ත
ජැක්
මූල්ය
##ie
Al
බුදුර
නිශ්චිත
කන්
පෙද
ස්වභාවය
##හ්ම
නොකර
තුලදී
1990
සංවර්ධන
##දැක
අයිතිවාසිකම්
ප්රතිමා
##ice
##තුල
##සාද
පෙරම
ගණනය
ජෝර්
cl
වනවිට
පුරාතන
##පොළ
දේවාල
පලා
කාලයේදී
පොර
##ෙප්
##ොත්තු
පරාජය
ප්රකට
පවතියි
අවස්ථාවන්
ආකාරයේ
රාජධානියේ
දෙපාර්තමේ
තෙවන
ආර්ය
තරු
පදි
##ru
බණ්ඩාර
ඇප
ප්රෝට
කෙළ
As
ආචාර්ය
##වේදය
භාවිතයට
has
##මනින්
ලබාගැන
පුද්ගලයින්
ශබ්ද
අරු
නෑ
##කෙර
රෝමානු
වෙළෙඳ
දීර්ඝ
දුන්නේ
හමුවේ
කතාමාලාව
ක්රිස්තියානි
##act
ලෙසට
ක්රමවේද
##පළ
තායි
ඉලක්ක
##ෂ්ප
පාසල
##ack
can
ගවේ
වාර
චීනය
සෙසු
ගරු
අයිස්
##ටීර
##fer
දැක්වෙන
මට්ටම
තුව
ෆෙ
වේගය
ග්රාම
##ase
පුද
දැනුම
හිමිකම්
ජාතීන්ගේ
කැබ
දොර
##ටින්
දැක්වේ
මුලින්ම
ආක්රමණ
එළි
##erm
##ාගාර
සේනා
හෙළි
පදනම
රසායන
wiki
ප්රතිපත්ති
##ජනය
##ach
##ම්භක
ඔක්සි
60
##රිස්
නොති
සෝවියට්
ප්රමාණවත්
දමා
##පෙ
පසුබි
හැඟ
පවුල්
ශක්තිමත්
ar
ඩේ
බසින්
##we
2001
යන්නයි
හිටපු
##ජොං
අප්රිකානු
පල්ල
##ම්බා
##wo
ප්රදේශවල
wikipedia
##බෝ
##ගන
##pl
එකකි
යෝග
##මාර්
##ens
කැමැත්ත
හන්
##මයි
නැතහොත්
ස්ත්රී
සහය
සම්භාව
මුලික
එවකට
අළු
පෙනෙන
සැබෑ
කහ
කන්ද
මට
##වම
අරාබි
ධාව
##මාර්ග
##ind
##ක්කේ
අයිතිය
තල
යූ
මහාචාර්ය
අතරට
එතරම්
this
ගැටළු
##යත්
##ral
සිහ
රැසක්
##කිරීමට
සූත්ර
ගී
##ඬුව
##ෝජනය
##වකාශ
##ගිරි
##භි
also
##res
පද්ධතියක්
පුරාවිද්යා
sy
ගඟ
##සම්
##සියේ
ලෙසත්
##orm
දෙසට
ඉගැන්
පෑ
##ඩන්
##ඹුර
කලින්
ඇතුල
පැවැති
ස්ථානයක්
එකිනෙකට
ගන
මල
##රල්
ටැ
ලන්ඩ
පිටු
ඉලෙක්ට්රෝන
අශ්
ව්යවහාර
##NA
සමගම
උපරිම
##වීමෙන්
##ුනු
##පක්ෂ
අඩවිය
පළමුවන
විචල
ප්රකාර
කමි
##සිල
යුතුව
එක්ව
ක්ෂුද්ර
උපාංග
නාගරික
whe
##වමින්
##ගනී
##වාන
පෘෂ්ඨ
තේරුම්
අත්ය
31
ලන්දේ
හඬ
වැල
ආරෝප
කටයු
නැවතත්
අනාවරණය
ab
##ටන්ගේ
his
රහිත
සුන්
##ාත්
පරිශී
##ely
සංග්ර
රයි
සිටින්
කුළ
පුද්ගලයා
1947
විද්යාලයේ
##පිරි
##ලෝකය
කාර්යය
පළාත්
නාවික
An
තද
නාය
##ond
1989
පාරිභ
##ියාගේ
මායි
දියත්
ආසියානු
මාලිග
අහිමි
පෝ
##තන්
##බෙ
##ace
##සිල්
වීඩියෝ
බොහෝමයක්
ඇයව
##දානම්
##යෙකි
##පියන්
නිශ්
##ල්ලට
ගොඩනැගිලි
එතුමා
##ාපති
පුස්ත
ශිව
නමැති
##ress
පැය
2016
පරාස
ගබඩා
##ස්ය
වැඩසටහන
##වශ්ය
බලවත්
##ight
තුරු
මනා
හෘ
##කමක්
##ාවෝ
පැවැත්ම
##මෝ
##භූ
කිහිප
සත්ත්ව
ඉදිකර
හදුන්වා
භාජ
ස්නා
බැහැර
වීමයි
වර්ගයේ
##දෑ
දිවි
වර්ෂයේදී
ගති
##තෙක්
##ue
ඔවුනට
ඇල්බ
ජනාව
විකිරණ
විලාස
Re
අලි
##්රැ
නිරත
යුරෝපා
##ර්ස්
නොය
උපදෙස්
හිමියන්
ag
දිවිය
නවක
##ලේඛ
ත්රික
ඊළ
##න්ස්
විද
##රාල්
ජනර
නොහැක
වස්ත
##සෙ
සිසුන්
ජ්ය
##දවා
##one
ව්යවස්ථා
දරා
සාක්ෂ
වටහා
ඉව
දස
##ැස්
උපයෝගී
ගත්හ
වහන්සේලා
ලාභ
##ිණ
80
කුමක්
##කයකු
අත්දැක
##රුවන්
##පථ
තුමා
දිව
පිලිබද
මරණයට
භු
##ණයෙන්ම
පනත
ලෙසිනි
දක්වනු
අතට
ගර්
##ජේ
ආයතනයේ
අධිකරණ
ජර්මනිය
වැරදි
උපකාර
ආයුධ
ආකාරයෙන්
ශාන්ත
පවසන්නේ
ත්ය
##විඩ
##පාද
අධ්යක්ෂණය
දෙකම
##oll
පැමිණෙන
පුත්රයා
පහසුවෙන්
සමූ
සැර
සම්බන්ධව
පිටත
කෙසේන
1980
සයි
##තිමත්
නිල්
පොල්
චීනයේ
අන්තර්ජාල
ඔක්තෝබර්
කළා
පාදක
ගෝලීය
ගුරුවර
උස්
##මිත
නැව
යුරෝපීය
විශිෂ්ට
කාන්තා
පණ
තිස්
##ද්වීප
සැතපුම්
බිරිඳ
but
කව
##ගාරය
##සම
ප්රි
##ance
play
ඕස්ට්රේල
ඇඟ
බවක්
සිදුකළ
බහුල
සීමාව
සාකච්ඡා
කල්ප
බයි
##ගැබ
##ඩී
නැග
##ions
එකට
වගේ
ග්රහල
##ක්ම
##ign
ආකෘතිය
කතාව
දැව
බලපා
##පොල
ආලෝකය
කැල
මොන
ක්රීඩාව
ත්යාග
##බුද
දශකයේ
පීඩනය
මනුෂ්ය
##ලන
කිරීමක්
ව්යාපාරය
සටන
න්යෂ්ටික
හුද
##සියානු
##ward
##තුම්
මිත්ර
187
මුදා
##ධාරණ
චෝදනා
පණි
ප්රිය
සිටී
උපදේශ
2003
186
ජනාධිපතිවර
පුස්තකාල
ph
##වැන්න
අර්ථය
ස්පාඤ්ඤ
මොහො
##කාව
##ජුව
##ඳුරු
##නයෙහි
##්යය
කෙසේනමුත්
##දෙ
##ශාල
##olog
one
සිද්ධාන්ත
විද්යාඥයින්
ස්වාභාවික
සංගම
##ක්රීය
දත්
##ෑමට
පත්වූ
##වාදීන්
ගීතය
සොහොයුර
other
වෙනි
##වීමක්
මුල්ම
ද්රව
ප්රශ්න
ඥා
හමුදාවේ
බෙහෙවින්
මංගල
වෝල්
##ද්දී
ස්ථාපිත
##ියානුවන්
මර්
##තාවයන්
මාසයේ
නර්තන
##මස්
##චිත
සම්බන්ධතා
දෙකකට
ගොඩන
දිගටම
දහම
සෙල්
##තෙ
##ile
##ඩාව
##ාර්මික
they
2002
උඩරට
කාමර
ජැක්සන්
ඇඳ
කීර්
##ah
විෂ්
##hes
##ates
ලැබී
##සරික
තිබුණේ
ස්ථානයේ
##ෆි
##ෂ්ටා
වෙනස
##මන්ත්ර
පිහිටුවන
චලනය
dis
දෙනු
ජනගහනය
මගේ
හිරු
##දන්
##පිර
කිරණ
##ත්වයේ
##ලාභ
අනන්ය
ස්ථිර
පූර්ණ
##රෝ
ස්ත
පවත්වන
ආරම්භක
පාරිභෝගික
අශ
බ්ල
හය
සුල
දිස්ත්රික්කය
දායකත්වය
කර්මාන්තය
man
හදි
රාත්ර
බෝධි
ශු
උන්වහන්සේ
ජනාවාස
ආදර
##ිතම
පොලිස්
ශිලා
අභ්යවකාශ
##සයිඩ්
තර්ක
ඒකාබද්ධ
සොහොන්ගැබ
වත්
##ound
වර්ෂය
භාගයේ
සභා
කලාපයේ
ඇත්ත
පාප
සිව්
දුක්
තුවාල
500
පවසා
##ics
##ියේදී
ඇරඹෙන
##හරු
##ුල්
##ood
##ූව
ප්රාය
බැට
තරමක්
ගිවිසු
මර
ලතින්
කියැ
යෙදෙන
කිලෝමීට
##ණී
##ft
කුස
ශ්රිත
නියෝග
ආසියාවේ
##ාවර්
වැලි
හිස්
##දුවේ
Com
two
මළ
කරගැනීමට
##සේන
මිතුර
##ගත්තේ
ප්රාග්
දිගින්
මාතෘ
දැක්වූ
ශාඛ
තීරණ
විශ්ලේෂණය
ශීත
##දාස
පාරිසරික
ගැහැණු
සහගත
##යුම
අඩුව
##ාවන්ට
team
ෆි
පැහැති
උළෙල
දෙවැනි
පවසන
බලප්ර
##out
##ඵලය
උළෙ
එලෙස
රහ
වදන
##ඥයින්
##හනය
##සීන්
##ේරා
##mer
උඩු
##කෙ
##ob
ප්රතිමාව
ප්රායෝගික
සවි
සහයෝග
තිබීම
බලකො
##හැකි
දෙනෙක්
නවීන
##හෝ
##ඩියා
##ංකු
පවති
පවත්ව
ධාතු
ජපානය
ඔක්සිජන්
නොකළ
යහපත්
ලූ
දළදා
සංචාරක
විද්වතුන්
ගං
##ධිය
වික්රම
කිරීමත්
සලකනු
සපයන
පරීක්ෂා
සන්නිවේදන
වෙඩි
නාළ
පරාක්රම
##පේ
දරන
##ula
##ෙස්ට්
ලියන
පරමාණුක
පත
සළ
##වෙන්
##lic
##වේදනය
මෑත
අපේ
අත්පත්
නොවීය
##ose
රාජවංශයේ
බලාපොරොත්තු
part
න්
සින්
##ould
ආණ්ඩුක්රම
im
ne
සිටම
බලන
බැක්
##amp
##ර්ගික
විජිත
##ක්ෂිත
##වරයෙකු
බිලියන
කණ්ඩායමක්
සම්ප්රදා
ඊශ්ර
බෑ
##ey
##නික්
වැසියන්
int
අංශු
දඩය
##ජෝ
විභාග
බිම
සංස්කරණය
සුවිශේෂී
කඩා
ගැන්
##පිළි
ඔස්ට්ර
##ricket
used
Ar
ඇස්
නඩු
නිසි
##ents
කාර්යාල
උද්යානය
ගව
ජීවන
තුන්වන
පවර
ප්ල
යකඩ
##ංගම
බැව්
ශතවර්ෂ
කෑ
ගලා
ඇතිව
පවතින්
එමඟින්
රාශියක්
නට
පුව
##ුල
තිදෙන
##පෙර
ඇතිවූ
##ලිනි
##ath
කාර්යයන්
පවත්නා
පෙදෙස
වල්
##ඛණ්ඩ
නිම්
සහතික
##සිදු
##ite
පුවත්පත
32
##බ්ර
##ංග්
ඉතාල
ධූර
##ථා
##inal
ගැනීමෙන්
ජීවීන්
පරිපාලන
35
had
මඩ
##fter
භාෂාවෙන්
ආසන්
භ්ර
රී
අනතුරු
කටු
##stem
පිටපත්
##able
සිල්වා
හුවමාරු
##න්හි
විලියම්
ප්රේක්ෂ
##are
වර්ගය
##ගැනීමේ
විශ්වාසය
ආසා
වක්ර
හර්
##ටල්
##ුවද
වශයෙනි
වාද
ලෙන්
වැසි
ස්ථර
අලුත්
ඇඳුම්
රත්
##ියෝග
##වැන්ත
සොයුර
year
දෛ
පොත
ගැටුම්
වෙළද
පුද්ගලික
මාලාව
නිපදවන
නායකත්වය
##ොසොන්
නර
ශී
සල්
##ටේ
##ුවක
##ාර්ශ
අර්බුද
රාජවංශය
මයික්ර
ජයග්රහණය
දඬුව
වයි
##තන්ත්ර
##ලම
##ෑං
සංශ
##ියාවට
##ings
ප්රතික්රියා
අවය
නැව්
පරිණ
ජනවා
වශයෙන්ම
මාසයේදී
ආශ්රිතව
කවිය
##තයක්
බලපෑමක්
##යක්ෂම
ගනියි
වෙනම
අපේක්ෂා
##නුපා
හිදී
##ඩ්ස්
ගනි
පුවත්පත්
අලෙවි
චික
ශෛ
දේවිය
##ජාණන්
සෘජු
මාව
රණ
##වණ
මාර්ගයේ
ශ්රේෂ්ඨ
ව්යවස්ථාව
Ph
its
චාරිත්ර
දහස්
##ුයේ
##ජින්
සම්ප්රේෂ
වත්ම
##ram
##19
විවිධාකාර
##වෙල
පං
ලක්ෂණය
##oy
වන්දනා
ඩබ්
ලෙන
##ිතාව
මිහි
අධිකාර
##බර්ග්
භාජනය
Test
ඇට
ඉස
##තිම
සංස
කැමර
Sh
##ක්කු
ප්රච
කරගත
තිබුණු
pre
චා
##ener
ලබාදෙන
පිළිම
##බිසව
##ධාතු
De
##යාන
අපනය
පෙරමුණ
කඩු
මං
##තත්
ප්රස
අධිරාජ්යය
වස්තූන්
අතුරු
බිය
##සිරි
##බඩ
වඩාත්ම
අධ්යක්ෂක
ප්රමාණයෙන්
සිටියහ
ජූල
හෙන්
ප්රවර්
දැවැන්ත
use
##පන්න
සිදුවීම්
වෛරස
අතු
##ුවෙනි
##ිරා
##දිව
රචිත
ප්රභේද
සියළුම
series
ඉර
##තූන්
කිරු
ස්ථාපනය
මණ්ඩලයේ
ප්ලා
චුම්භක
අවුරුද්දක්
දෝෂ
හානිය
සාධාරණ
පරිසරය
සාහිත්යය
World
උද්
ජෙ
##ාවකාශ
මෙවල
##සුස්
වසරෙහිදී
යාපනය
##rad
##ම්බර
පුරාව
##පුරා
සාමාජිකයන්
සර්ව
ඉක්ම
ප්රේම
ආවේණික
බුදුරජාණන්
යුගල
මහාව
90
ආභ
ආපසු
නඩ
##up
##තුමන්
මැටි
##ධානි
යුව
##හාණ්ඩ
##enc
හැඳින්විය
ජූනි
ගැබ
පෙරදිග
කථාව
න්යා
භික්ෂූන්
ජෝර්ජ්
per
##ොප්
##vel
කැඳ
##ivers
රෙදි
Pro
ආබාධ
ලෙසයි
බවද
##ල්ලු
සුන
පත්කර
ඊශ්රාය
සිත්
##ම්භය
නිර්දේශ
ජනවාර්ගික
පැවර
##ාගත
කි්ර
උත්තර
සම්පූර්ණයෙන්ම
හොර
##ීක
##කයෙක්
අත්සන්
අම්ලය
02
##රාජ
##වනය
##භාර
##නාථ
නොකරන
වෙහ
ස්ථාවර
කාබනික
ඇලෙක්
##ප්රාප්
ඉන්ධ
තෘ
##ශය
හැක්කේ
දුම්
වාදය
රංගන
දූපත්
තාව
පැල
ලැබිණි
අතිශයින්
He
Mar
ඇන්ඩ
සික
ෆ්ල
##දාම
උපකල්ප
වීම්
වැඩිහි
ඇතුල්
##කෘති
##ime
ලබාගත
වින්ඩ
ප්රජාතන්ත්ර
2017
ඈත
ටෙස්ට්
මව්
##ee
සම්මා
බලපාන
##ෂ්ටාචාර
පථ
පන්ද
##ගන්න
##ium
##තුංග
වෙනසක්
##ණුම්
දේශපාලනික
අම්ල
රුසියානු
අමර
කූ
මුදු
යේ
හැදෑ
##ism
දුරකථ
ඇමරිකා
නළ
##නල්
##ගර්
කොමි
තිබුණ
කාච
පුරවැ
අවශ්යතා
සියවස්
been
##ොක්ස්
අභ්යාවකාශ
දිනයකින්
පෘථිවි
සබඳතා
උණුසුම්
03
do
පොදුවේ
sp
දමන
##කුගේ
දුරටත්
who
එකිනෙක
ඊජිප්තුවේ
වේගයෙන්
ගංගා
Aust
more
##මුව
##ක්වා
විනෝ
##ාමී
ශිෂ්ටාචාර
ඉස්ලාම්
නොයෙකුත්
නැං
මුඛ
##ors
##පත්ය
පහල
##කරණයේ
කැරැ
තත්වයන්
බන්ධන
ස්නායු
ජූලියානු
70
දාර්ශ
වක
##හනක්
##ix
##ුවෝ
##නිජ
අදහ
##නියම්
sex
නිලධාරීන්
වැළැක්
සජීවී
##වන්න
##ියම්
කරනුයේ
ක්රියාකාරි
ප්රයෝජන
##les
කරගන්නා
හැම
සමගින්
නියැ
තෙත්
stud
ටෙලි
කපා
##හො
##ron
නිරන්තර
පාලක
ඇමරිකාවේ
නමුදු
ඔබට
##ount
මෝට
පෙරේරා
1999
සන්නිවේදනය
එච්
##නිර්මා
සාදා
පවසයි
##ට්ටේ
විප්ලව
බෝග
##සෙන්
##න්ති
##දීම්
##කරණයක්
විසූ
##ough
කාර්යක්ෂම
##over
##කුල
සම්පු
##වර්තන
භාෂාවේ
නියමිත
ගිවිසුම්
අක්නා
වින්ඩෝස්
ඇවි
කවර
##නියා
##බල්
##ේස්
##ියකි
විකල්ප
මැර
කැපී
පැවතිය
අගයක්
අවස්ථාවක්
නොතිබ
මඳ
ප්රවෘ
කරුවන්
සංඥා
රාජ්යයන්
##ධිපති
නිර්ණය
me
නෞ
##මිල්
අභියෝග
පිටුව
භාවය
එක්ස්
##කයෝ
181
දරුවා
ජේම්ස්
කෘෂිකාර්මික
දුෂ්
##දායී
ගොඩනැග
වෙළඳාම
cons
such
ප්රතිසංස්කරණ
යම
රත්න
##සඳ
##බුන්
අතරම
දිව්ය
වරද
1978
##ස්ථානයේ
සම්ප්රදායික
හැකියාවක්
##පාන
දාර්ශනික
මවු
1977
1956
පොළොන්න
විලාසිතා
ගියේ
ජර්මා
##සක
සුපිරි
රාජ්යයේ
භූගෝල
දරුණු
##ode
වෘත්තීය
එන්න
ඩය
##සේකර
නැගී
##lect
ආහාරයට
බීජ
##ජර්
##ටී
බිසව
##පිටිය
වගාව
##ෆ්ට්
වයඹ
ඇසුර
ගම්ප
මායා
##ටද
##මාල
ගැනේ
මුද්රණ
ව්යුහය
ඉස්ලාම
##න්දි
##ක්රා
##මණා
පිරිසිදු
සැලකෙන
ආත්ම
ගත්ත
වස්තු
සම්මු
rec
ගුණාංග
නිර්ව
##සිස්
අයුරු
කැම
අනුග්ර
ජුනි
කෞතුකාගාර
ණය
නෛ
ශෛල
##නියේ
ක්රියාවල
33
ලැබුණු
වාසි
බ්රා
ආර්ථිකය
formula
01
##නර්
##බී
පැට
ඇමරිකාව
කතාමාල
ඉන්ධන
Austral
නැරඹ
නියමය
ආදායම්
චින්
ජොසොන්
##ළිය
##tain
##වුනු
භූමික
වායුගෝල
මාරු
මායිම්
##බෙල්
පැත්ත
ඉතාම
කණ්ඩායමේ
##මීන්
විල්
හොද
##oth
පරිගණකය
කොරියාව
bl
##ගනි
සංක්රමණය
දේහ
##ෝර්ක්
දුෂ්කර
36
45
විමු
වැය
##int
ආරම්භය
පුද්ගලයෙකු
අනිවා
කළමනාකරණය
##clud
බැක්ටීර
app
##යිඩ
##ෂ්ටි
රාජපක්ෂ
රාජධානි
##own
හදුන්වයි
තිරගත
අවස්ථාවලදී
ඔර
##ුනි
##ලෙ
යොද
අතරතුරදී
මෙන
මුර
##ැක
##පයා
##හිදී
උපකාරී
කැමති
නාලන්දා
සහභාගි
පාෂාණ
සුනඛ
##ස්ර
##සැන්
##hed
තුළට
චිත්රපටයක්
##යෙහිදී
දශක
ප්රජාව
වගකීම
හයිඩ්රජන්
England
ආශ
ආදේශ
##ඞ්
##ේදී
##පන
පරිච්ඡ
සමානුපා
##ict
යෙදීම
සංස්කෘත
ලබාගත්
නයිට්ර
උච්ච
ළමය
පැවතිණි
අධිකරණය
ඒකකය
It
ආදර්ශ
සියා
##සුර
##form
##සුනක්
පාත්ර
##වතී
සිටියි
ආකෘති
III
ආනය
එළඹ
නෙර
##ාවේදී
ක්ෂේත්රය
##oci
අද්
ජො
ළමුන්
##රෝධ
##විම
හමුවන
##දැයි
තිබී
පහත්
තානා
සභාපති
අන්තර
බුරු
##සියා
සම්පාදනය
නවසී
##ධිපත්ය
පර්වත
තරගාවලිය
මුද්රණය
Se
භට
##ගමුව
නගරයට
මගිනි
ගෞරව
අබ
චෛ
##ail
හේතුවක්
නිළධාර
ආද
වස්
##ින්න
ස්මාර
##ලිංගික
##ater
ඊජිප්තු
##ඥයන්
##සියාව
##ේය
පැරණ
පුත්
Sc
දරුව
ලියැ
ව්යාපෘතිය
අශ්ව
පරිශීලක
ලත්
##ject
##මාන්
රජුට
සීඝ්ර
දම
කෙරෙයි
##වාදයට
##දූ
ප්රබන්ධ
කරවන
සිසුව
වෙස්
සොයාගෙන
උදව්
04
ජංගම
මෝස්
වම්
##රින්
##esh
ලබාදීම
සිදුවීම
දරයි
##ock
දෘශ්ය
වියදම්
සමානුපාතික
තනා
සාර
##ne
##්යු
ලෙසය
##ල්ලන්
ලිප
1998
ජනතාවගේ
out
ආත
##ිකාවක්
##ප්පා
අමෙර
කිසිව
කීපයක්
විධායක
##ප්රාප්තික
Cl
##ුදා
ප්රදේශයක්
යොදාගෙන
සංවිධානයේ
මන්දිර
අත්දැකීම්
spe
කවි
##පෝ
ගැස
පීඨ
ගැටලු
##ific
##anka
again
des
යන්නට
##ුනේ
ශිල්පය
only
අගම
ජලා
අපගේ
ගැනු
පෙළඹ
තමාගේ
ගොඩනැගිල්ල
කර්ම
අදිය
වේගවත්
##ුවි
ප්රො
සමර
##ට්ටි
බිත්ති
ඇමරික
bec
සිටින්නේ
tour
ආකර්
ග්
##ලීම
##ියාට
පුරාවට
රාජ්යයක්
ඒවාට
අභය
##කයන්ගේ
හැරුණු
ඇතුළුව
ඊජිප්තුව
කම්ප
තත්වයක්
##තෝ
##වකි
##CC
ඉහළින්
ගැටල
නාලිකාව
This
සංගමයේ
2ක්
උර
එමනිසා
මැක්
පිරිස්
##කොට්
කිසිම
ජීවත්ව
පරමාණ
අතිශය
ෆෙඩ
යෝ
##නත්
කුමන
ප්රතිඵලය
184
පැවැත්
##ake
ප්රමාණයේ
නර්තනය
ආචාර
ජෙන
##න්තුවේ
වෙනවා
ප්රතිරෝධ
අග්ර
ක්ෂණික
රෝහල
පද්ධතියේ
කොරියාවේ
comm
පෘතුග
##තැන්
සාද
බලයක්
පැහැදිළි
උපාධි
පුහුණුව
මෝස්තර
කතුව
##බට්
##්රි
##කුට
වර්ණය
නැටුම්
අග්
යුගයේදී
පවතින්නේ
ප්රචණ්ඩ
හෙන්රි
හැදෑර
00
ind
##පෑ
##ක්ෂික
ඇතිකර
සිටීම
##රියා
##කාරි
බැංක
##ited
තරගය
includ
1950
deg
පන්දු
පිහිටයි
ඊළඟ
තිස්සේ
පොලි
අනුමත
පිරිවැ
නෙෆර්
##ternational
cap
##දර්
##ලයක්
##තිස්ස
කරනවා
මැලේ
චිත්ත
පර්යේෂ
Con
ඇඩ
දන්
හරිත
ගණිතමය
##ත්වික
රැඳ
##ඤ්ඤා
ජර්මානු
මුණ
ගොව
පාහේ
රැකියාව
සුළං
ධ්රැ
වතුර
##කන්
##මිතික
තමන්ට
සූදානම්
යුරෝපය
සංයුක්ත
කෙළවර
අම්බ
ටු
වොන්
පැවසේ
රටාව
##ාන්තික
මොළ
දෙවියන්ගේ
ආදායම
අයට
පාන
බස
වසා
##නද
##ියෙකු
විග්රහ
පැසි
වියළි
තුත්ම
කිව
##iss
##වෙතත්
පාරාවෝ
බැඳිය
උළෙලේ
උරු
දන්ත
ගණනාව
රැකියා
පදිංචි
most
##ටක
සිහසු
නැඟ
සුභ
##ූරිය
පරිභෝජනය
බලකොටුව
ග්ල
තත්වයට
##මල්
##මණය
නොස
##කාමී
මතක
වීමක්
ග්රැ
එකිනෙකා
රඳා
යතුරු
ස්වර්
බැංකු
##ස්තමේ
ප්රකාශන
ආරම්භයේ
රෝස
ජපානයේ
අස්ථි
දෙපාර්තමේන්තුව
ගමන
ස්ථානයට
ආසියාව
යන්නෙන්
##raph
පංච
බෙර
##BC
විල
හැට
කුර්
කලාවේ
කිතු
පිළිගත්
up
ටික
යමින්
##ෂන්
##තිකා
##ann
ලැබිය
ගැනීම්
පසුගිය
##ගුණය
අධිරාජයා
ජීවිතයේ
විකාශනය
ස්පර්ශ
පරාක්රමබාහු
300
කණ
තක්
වහා
##මුණු
##කිරි
අනුරූප
විවාහය
තමාට
සදාචාර
ac
kn
කුණා
භාර්ය
යන්නේ
##තයේ
##ලයි
##air
ඇතිවිය
යුත්තේ
පාලකයා
ඉහළම
##ular
පදාර්ථ
ව්යාපාරික
කුමරිය
එදි
සංසිද්ධ
ලැබුණි
සමාන්තර
ශිල්පීන්
ග්රන්ථය
දැන්වීම්
match
විරෝධී
අනුපාතය
system
##io
##ඩේ
##ස්ටන්
##ative
යනුවෙනි
කිම්
ජාතිය
විධිමත්
වත්මන්
මොර
##යන්හී
මාළි
කියනු
නිදසුනක්
මියගිය
හදිසි
අඹ
ඉම
බෙන්
##නාගාර
නොයෙක්
##ණ්ඩා
ජාතිකයන්
1996
දෙසින්
අරමුද
Sri
ලයි
##මො
##බද
##ශක
අධ්යනය
අඛණ්ඩ
උණ
##යාම
දේපළ
යුගයට
සරස
හැඩය
හතරක්
දැමීම
ඉක්මනින්
සැපයීම
##ෝධනය
##ook
සාධ
පුරාම
වරාය
##ගුර්යෝ
නායකයා
රිය
##ැස්ම
##ටර
##මාන්ය
මෙතෙක්
##ව්ව
##දියුණු
නිකාය
අවධියේ
කිරුළ
නැහැ
ක්ලෝ
පාර්ලිමේන්තුව
විකිණ
ජනරජ
සිහසුනට
bet
may
over
එඩ්
ශාර
##ll
නිවර්තන
හමුදාවට
පරම්පර
දිවයින
##ology
ප්රවෘත්ති
පකි
##නන්
##aus
##10
##ced
වැව
ලෙසින්ද
සීනි
##roup
සොර
##ායී
වැඩම
අසාර්ථක
##ඩියම්
හිමිකර
ආරා
දක්ෂි
##ස්සා
##කරුවා
අනිවාර්ය
so
ඛාන්
##නීය
##ae
##ර්ප
ප්රංශය
දේශනා
##බිම්
##ධාරණය
1994
පදවිය
වර්තමානය
ජේසුස්
නොමැතිව
කුසලා
DNA
Sp
##නස්
##ool
##ස්ථාපනය
##ාන්ස්
දුරින්
පක්ෂයේ
සටහන
සලකන
##ඳින
අඟල්
යෙදුම
කටයුතුව
ඇල්ල
ගන්නේ
ඩෙ
##සීමට
##80
##මාණ
වැව්
මිස
කෙසේවෙතත්
ද්විත්ව
පසුකාලීනව
තුත්මෝස්
75
එදා
##රත්න
##te
##තරා
වර්ථ
දියුණ
ශාකය
ඇතැම්විට
පස්වන
ආසන්නයේ
400
මොන්
සන්ද
සරණ
කරගැනීම
ගොනු
ගොගුර්යෝ
සම්බන්ද
##eld
පැහැර
විමර්ශ
කිහිපයකට
ළඟා
##ys
නිව්ය
ජනරාල්
අගබිසව
පෙම්
##rib
දේශපාලනය
සැකසුම්
ප්රහාරය
මිලදී
එංගලන්තයේ
ඇලෙක්සැන්
තාවකාල
rel
එලි
##යිස්
##ුන්ට
1995
බලපත්ර
ආරක්ෂිත
ආගම්
ග්ය
නෝ
##ගිරිය
දැනු
##පාදන
ක්ව
රුසියාව
අත්යවශ්ය
ආනන්ද
ධුර
සාය
නියත
ටීවී
වකවාන
උනන්ද
බඳුන්
##දීමේ
##ණියන්
##ර්ගේ
##ාවරණය
රාජා
ගැඹුරු
අනුකූල
අනුප්රාප්තික
මධ්යතන
ව්යාපෘති
උත්සවය
පාර්ශව
ඉස්ලාමීය
පශ්ච
රුව
##සනය
##pos
##තාවන්
180
1991
1997
ස්වදේශ
##කයන්ට
##යිකල්
අංගයක්
සපයයි
ග්රහලෝක
34
##පත්ව
##ශා
විවර
##ංගුවට
අරඹ
ක්ෂේත්රයේ
ජනතාවට
sub
බලප්රදේශය
අමු
##ොෆ්ට්
##ල්ය
##cess
මෙවන්
##යක්ද
##ුන්ය
අවශ
මතභ
අග්රා
යුද්ධයේ
අවස්ථාවක
මට්ටම්
නාට්යය
තර්ජ
හැදින්වේ
විශ්වවිද්යාලය
රඳවා
සම්භාව්ය
Le
සපයා
සමුද්ර
පරිපථ
යොදාගන්නා
##බිම
New
ඔප්පු
කෝප
බඳ
##සූ
අඩවි
වාෂ්ප
වෘත්තිය
හඳුනාගත
සංචාරය
ශාලාව
යාන්ත්රික
ගායනා
නෛතික
ආලේ
තුර
සය
සුද
##සෙන
කළමණා
##න්තය
මහින්ද
ජලයේ
මැදිහත්
දඩයම්
after
now
und
සනාථ
නිර්ම
##වුඩ්
නිවස
ඉදිකිරීම්
##ටුවේ
##ven
මුත්
පහක්
පාලි
##ොක්සයිඩ්
විනිශ්ච
පරිණාම
කැමරා
පැරණිතම
##වති
සිංග
පරපුර
දේශගුණ
අප්රිකාව
තිබුනේ
දැරූ
##ද්වීපය
කමිටුව
##ten
ප්රදානය
##ලික්
බැගින්
යුතුයි
183
ක්රමවේදය
than
පදනම්ව
ඉරි
##ාගේ
##හිය
##ර්යා
2018
විද්යාඥයන්
##ගාමී
හවුල්
time
ව්
##ව්ර
සුප්ර
බරපත
වටිනාකම
05
##rans
##පදි
##වේය
##ත්මික
##කරණයට
1993
කාර්යාලය
ජයවර්ධන
සභාවේ
ඉලෙක්ට්රො
දකි
වඩ
විනය
def
ජුලි
කරුණක්
ග්රාමීය
චෛත්ය
num
##හම
දෙමා
ප්රතිම
##තාවට
සිදුකල
සමාගමේ
##angu
දොළ
ත්රිකෝ
ගහ
බළ
වාරි
මාතර
පෙදෙස්
දැක්වීමට
ඉදිරියේ
##ණාමය
චෙ
##තිත
##ණයකි
##රික්
##ාගම
දුඹුරු
160
කාන්තාව
ශ්රේණි
මනෝවිද්ය
විවේච
run
මූර්
වච
##ෂින්
කුමන්ත්ර
උපක්රම
කැට
මූලධර්ම
අප්රිකාවේ
විජේ
ප්රවාහනය
ඩේවි
ශෛලිය
Af
එද
නසා
නිකා
රහස්
##යාව
##ලනය
##වේග
වැඩිදියුණු
ලෝකඩ
150
එල්ලේ
හඳුනාගෙන
දන්නා
##ැකි
##tic
##ක්ෂා
නොප
##වරයකු
පරිදී
ගෙනය
පටක
වේදිකා
එංගලන්ත
යත්
ර්
##මනය
##යිල්
වැටු
බලයට
කෙරුණේ
පාලනයට
##old
තෝමස්
දුන්නේය
පිපිර
පිළිය
##ත්තන්
දැනුම්
##ෂ්ම
දෙකෙහි
මධ්යයේ
චරිතයක්
ගුණාත්මක
වූවාය
බස්නා
against
රද
##ානු
##ල්ලි
##මාත්ය
සමස්ථ
අනුමාන
##හරණය
##ade
කාරක
වස්තුවක්
අන්දමට
මෝටර්
පශ්චාත්
සාර්
##ිනිය
##පිත
##xt
##ිකර
179
දැමීමට
මයිකල්
##ඩො
නිවේදනය
කොටි
නොවී
පැවසුව
පිටත්
පලමු
අකුරු
අශෝක
දුරකථන
යලි
##ඥාව
##කගේ
##ේදනය
ගොවිත
පළල
##වාදයේ
අංශය
අණුක
අරුත
විචල්ය
රාව
පැවි
බලතල
උපාය
##වීමයි
බෙල්
අවසානය
විරුද්ධව
නාළිකාව
IS
##දැක්
##oh
##නාම
##වරක්
දීය
185
කිසිවක්
අතිරේ
ගවේෂණය
fl
##නාවක්
##ෙත්
සිතා
කොන්දේ
##ලියන්
වාක්ය
විහාරයේ
නීතියේ
රූගත
ප්රවාහන
##red
##nam
බිත්තර
භාගය
උපාධිය
කම්කරු
අසාමාන්ය
පටිගත
ලන්දේසි
##ිම
##ේඛ
##වාන්
රාජසිංහ
අරගල
සිදුකරයි
37
ආවර්
##හොට
##නුයේ
අවදාන
නොහොත්
කායික
අධ්යක්ෂ
පාට
##ජනක
බස්නාහිර
දරණ
බල්
##කට්
##ious
##පටි
##ංසා
##ින්ගේ
උපු
දෙකක
##කරුවන්ගේ
ඩිජි
එන්ජි
##හොටෙප්
පොහ
##ිත්
නිමැ
##ියාය
නොවු
දෙව්
ප්රතිවිර
සමාජීය
පත්වන
පාර්ශ්
ක්රියාවන්
reg
##ගැනි
අධිරාජ්යයේ
එතැන්
සුන්දර
dif
ටො
වෙල
අනූව
ලැබීම
කොටසේ
##ark
##වීමත්
තුලට
පෙරහැර
වාහන
දියුණුව
දෙකකින්
බාධා
සන්නායක
බැඳී
සැපයුම්
##තෙම
ප්ලාස්
උම
දෝ
ශූර
##කාය
##දුනු
##කටම
අපද්රව්ය
තමයි
පාසලේ
රංගනය
සෙනෙ
##සො
##ඟන
සමතුල
ස්කොට්
##ලිව්
දිනයේ
ගැටු
නීතිමය
තබන
ලන්ඩන්
##ollow
බවත්ය
ක්ල
යෙදුම්
##ස්ථානයක්
බුදුද
වැඩිමහල්
බේරා
පෘථිවියේ
නිතරම
දක්ෂිණ
##ied
##sh
රජයට
මෙහිදි
පිළිගැනීම
##ගැනීම්
ඇමෙරික
සන්ධානය
සැලකිල්ලට
Australia
pos
අඳුරු
ආච
බෙක්
##පතා
විසින්ම
නැමති
##කාරය
මැඩ
ක්ෂීර
පෙන්වයි
කිරිමේ
ඇපල්
අවශෝෂ
පේශ
යෑම
විදේශීය
නිගමනය
පුළුවන්
පියාගේ
චලන
ප්රතිසංස්කරණය
බණ්ඩාරනායක
ගස
ලුණු
##රූ
සමලිංගික
පිළිකා
බලයෙන්
මහතාගේ
සෘජුව
Te
ඔය
කන
පෝල
##යර්
කරණ
##ෙනවා
##anc
එක්තරා
විශේෂඥ
රේඛා
ෆෙඩරල්
පානය
##විල
##දිවි
##ating
කාලයක
ප්රදේශයට
පිරිනැ
අත්හ
බහුතරයක්
සංග්රහ
ගර්භ
අදියර
qu
##නියානු
##ාරී
සිසිල්
මිළ
උපකරණය
යොමුව
නිරිත
##දනාව
ලිඛ
ක්රමයට
රෝගී
ලක්ව
ආසන
තැනක්
රිච
3ක්
Ad
work
ආධිපත්ය
නං
රෑ
##මර්
##ve
##ාරු
##දිම
##att
##ක්රමය
බ්රහස්
ප්රකාශනය
අතහැර
ද්රාව
යුද්ධයෙන්
##ජනීය
තෙලි
හදුන්වන
ඉස්ම
ආදායමක්
විෂ්ණු
බින්
වික්
##ෝජන
##ට්ටුව
හොදින්
ඩිජිටල්
සෛ
##රුන්
##ළා
##ෙනු
පරිණාමය
##ally
පරතර
දේපල
සිදුවන්නේ
අත්හැර
ආණ්ඩුකාර
දව
බාර්
##ටීය
##යිනි
##ත්තුව
##ities
ස්ථානයක
ඇමති
මට්ටමක
වෘක්ෂ
සතුට
ස්කන්ධය
කොට්ඨාසයකි
ජින්
දාව
##නගර
##බො
##පමණ
නොබෙල්
කැල්
පරාවර්
පාප්
##outh
පිළිවෙලින්
යෝග්ය
Lanka
her
ඉවත
චතුර
යාන
වහල්
සබැ
හත
##ලස්
##ug
##DI
##මානයේ
##සිටි
සියදිවි
කලහ
ප්රධානතම
##යින්ගේ
##දේව
1992
ආසියා
1965
දේවතාව
එරට
##istan
අග්රාමාත්ය
ගුව
සත
##ින්ම
##ara
##ලියාවේ
##වුල්
##සියස්
කෝට්ටේ
##න්ත්රික
කඩදා
මෑතක
දිශාව
යනාදිය
Iවන
කයි
දරු
##ever
##යාස
there
කාලි
ව්යුත්
නිසාම
සමගාමී
අංශක
පිහිටීම
අඟහරු
ඉන්දුනී
වෙසෙන
##ween
දර්ප
පාවි
සිල්ල
සිටීමට
මිනුම්
කැණ
උෂ්ණත්ව
64
ධජය
බඩ
##ෝය
නොපැ
##ංකය
##ළුම්
සිටිති
සීගිරි
වයස්
විදුහල
රිදී
සුවඳ
සත්යය
ඝනත්වය
ධාවනය
තක්සේ
උල්
එවන්
බහ
##ණ්ඩු
කැලි
මධ්යස්ථාන
##කරුවකු
ස්වරූපය
සහයෝගය
cent
වතු
ඇතිවේ
බැර
තත්පර
සීමිත
තිස්ස
##ගැනු
අන්තර්ජාලය
මෙවලම්
යක්ෂ
රක්ෂණ
සතුර
##ep
##ක්ද
විස්
නිවා
##කුළු
ගැනීමයි
අමෙන්
##වරුන්ට
##කරුවෙකු
##ලන්ඩ්
පෝෂණය
43
ආක
##චික
##ල්ම්
කරවා
අවල
##ons
##ණික්
##නියාවේ
සමඟම
වැදගත්කම
rep
ගුණය
සලකුණු
ස්තූප
sexual
ටොල
වහල
##wn
##ාවලි
ජනතා
තුළදී
පාකි
ක්රමයේ
කියන්නේ
පෙන්වන
යාත්රා
පරීක්ෂණය
##ාවලියේ
කාලීනව
සම්භවය
ප්රයෝජනවත්
ඇන්ට
ඩයි
##දක්ෂ
##හාව
##ුන
##පසුව
##ඛ්
විසිර
##hen
භාවනා
1987
ද්වී
සේවාව
භාගයේදී
හදුන්වනු
##විකරණ
when
සලා
##ධු
තිබිණ
පරම
නිරාවරණය
බ්රහ්ම
ප්රංශයේ
පැවතීම
##ublic
ලියාපදි
සංරක්ෂණය
some
##පෝෂ
##කිනි
##itt
##omen
නාමයෙන්
##ගොස්
මයික්රොස
55
99
ඇස්තමේ
හිර
##කලා
##සාව
වියට්
##සිට
ගොදුරු
දුක
ව්යාප්තිය
විදුලිය
චන්ද්රිකා
පටල
කිහිපයක
පුදු
##ේට්
මෙකල
සමකාලීන
##ායන
සාන්ද්ර
##ාවන්හි
බ්රි
රේඩියෝ
සිද්ධිය
චෝළ
අවයව
අගමැති
මයික්රොසොෆ්ට්
44
we
මුව
##වතු
කොල
පුරෝග
ගණිතය
ද්රවිඩ
1000
මරණින්
යෝධ
##ජිත
##pen
අවධාරණය
හිඟ
දියමන්
අවධිය
විප්ල
තැනැත්තා
කිලෝමීටර
අතිරේක
අමෙන්හොටෙප්
එල
කවුන්
ජාලය
වද
##ක්ශ
පිටි
සමයේදී
අනික
කොටුව
මාංශ
පැමිණියේ
ද්විත
ශරීරය
ඇන්ඩ්
පවරා
between
රාග
##යො
##තලේ
##ෙම්
##ැර
##ck
සංවේදී
කුලය
##ash
විවිධත්වය
1988
සංස්කෘතීන්
##ower
ගුප්ත
එන්ජින්
රුධිරය
##හාණ්ඩුව
හැටියට
##නියාව
##rin
සැඟ
එකී
බැස
ලිංග
##uring
1948
අවසානයේදී
06
cricket
පාව
##වාට
##කුත්
##ත්තල
කලක්
අයර්
මෙහෙයුම
##ement
##ොහොසත්
හමුවූ
හැසිරීම්
බරපතල
Su
ආරාධ
##reat
විශේෂය
පිටපත
ප්රථි
පන්ති
දෘෂ්ට
##ෙයාර්
උතුරින්
දමි
වාන
ෆෝ
##අඩ
##ෆ්ර
##ක්කම්
කරන්නා
මෙතුමා
##ale
අයත්ව
අනුවා
ජාති
ක්රියාමාර්ග
කියලා
පිහිටන
ජර්මනියේ
වැලැක්
07
අකු
උත්තේ
##කික
##නයක
කේත
sec
ලක්ෂ්ය
අග්නි
ශාරීර
ආකල්ප
කද
පටු
සන්ත
##හක
පැන්
සාදන
මිසයි
182
රුපිය
ලක්වූ
වෙන්කර
විද්යාලයයේ
සිනම
කෙනෙකු
දෙමාපියන්
65
මතුව
##aj
කොමිය
##ායාම
##ala
කාලසීම
සොල්
පෙල
අමුද්ර
ලංකාවෙහි
පැහැදිලිව
සෞන්ද
දශකය
සැමියා
බාලදක්ෂ
තබාග
ටැං
හෘද
##ද්වීපයේ
many
into
වස්ත්ර
වාග්
##fore
##ෆික්
##ියකු
පික්
පිති
##ත්තල්
දැයි
තිබෙන්නේ
##කිරීමේ
දෙදෙනෙකු
ඇසුරින්
කරන්නන්
හැසිරීම
විප්ලවය
langu
writ
ඇර
ඇෆ්
##ගික
##ේන්
##man
##ches
##II
##ත්වා
වර්ගයක්
කෙරි
ලබාගැනීමට
විදහා
විමුක්ති
එදිරි
km
ඛණ්ඩ
ටොන්
##දුණු
##ායි
##ධානය
##විද
off
වසරකට
වැඩිය
දැක්වෙන්නේ
ගිණුම්
මුදලක්
කෘෂි
177
සරත්
හින්දි
කෙනෙක්
වාර්ෂිකව
ඉගැන්වීම්
ශතවර්ෂයේ
පිරිවැය
ශුන්ය
##හින්
##බන
##පරි
##පසින්
සියුම්
වර්ගී
ගිම්
##වින්ම
නිරූපිත
කුසලාන
under
call
gener
ty
කට්ට
ගන්
මාසය
##ගුරු
##සස්
##පුව
##පනය
නොගැ
දීප්
කොටගෙන
කෙරුණි
හේතුවෙනි
ගිනික
සකසා
ප්රභව
පුරාවිද්යාත්මක
පුරාවෘ
54
For
follow
නබි
නරඹ
බොර
##ොයිඩ්
##ාරම්
##ිතිය
මිලි
අයෙකු
පිරින
කෝෂ
ගාල්ල
සිදුකරනු
කුරුණ
බඩු
##60
##මාධ්ය
ගැඹුර
##වුනේ
inter
වැදග
තේරී
හැරීම
නැතිනම්
දේවාලයේ
සාමාජිකයින්
තනතුරු
රාත්රී
##velop
අනුග්රහය
win
ආවර
ඔබ්බ
පද්ය
මසුන්
ලිබ
##භව
##ිකාවන්
##වරයෙක්
සාමය
ලැබෙන්නේ
##owever
වායුව
සංඛ්යාත
ප්රතික්රියාව
පැවතුණි
ප්රිස්ට්
පවත්වනු
උපකල්පනය
තානාපති
po
ඉපැ
ඍජු
##ැසි
##hem
##ery
සඳහාද
සඳහාය
##ාගෙන්
කාලගුණ
##ට්රා
1979
අවස්ථාවේදී
ප්රවර්ධනය
අන්ය
නමක්
යාප
##ාම්
##ෑගල
සිල්ලා
දිවෙන
ඉන්පසුව
##දෙනු
##ට්රො
ලද්ද
කරගනිමින්
ප්රයෝජනයට
විනිශ්චය
##හාන්
ස්වි
මැණික්
කිරීමටත්
අධිරාජිනිය
සාහිත්යයේ
ප්රතිපත්තිය
වගකීම්
හුදෙක්
ප්රිස්ට්ලි
ob
would
දවස
##රත්
##ved
##මිණි
මින
රාජ්
යෙදී
1985
සෞර
නිවසේ
නිරීක්ෂණ
අක්කර
විශිෂ්ඨ
නිර්වචනය
Man
##මහා
##ණියේ
අවු
තුර්
##ene
මැති
##ise
##වෙස්
සොයාගත්
සතුන්ගේ
add
රත්නපුර
ප්රතිවිරුද්ධ
පයි
##mb
මහත්ම
1984
තේර
පළාත
සන්නද්ධ
සාර්ථකව
මනස
මිනිසාගේ
දියමන්ති
US
ඉරිය
##lish
##vers
##යන්ත
ඉන්ද්ර
##ters
කැබලි
ඉදිකරන
වෙහෙස
පෘතුගීසි
47
count
කෑම
හෙක්
##ිති
##කුරු
##ගල්ල
##ාරාම
##වැත්ව
##ick
අනුගාම
සිදුවී
පැවැත්වූ
ඇසුරු
කඳුකර
##iversity
ලිඛිත
39
acc
group
##යම
විකෘති
සේම
යොදාගනු
නගරයක්
1983
##ract
##ලොව
ඉලෙක්ට්රෝ
සුදුසුකම්
දාග
දුරු
ලින්
##ාධික
##ෝර
##වන්ත
##ැන්න
##lad
##විත්ර
බලශ
විටෙක
වැඩිපුර
ප්රධානියා
##ුවේය
වර්ෂාප
##ution
ass
හමුවී
විවේචනය
comple
42
att
ටි
##ier
සමත්ව
නොසල
ලැබීමට
විටමින්
පසුපස
රටක්
හෙතෙම
මිනිස
three
##විටම
ගුවන්යා
පැවැත්වීමට
බ්රිතාන්යය
ලබාගන්නා
ආණ්ඩුව
char
මත්ස්ය
ආදරය
##meric
පොහොර
ඇස්තමේන්තු
රුපියල්
ඊසාන
දණ්ඩ
වඳ
වෑ
##ඬු
##ියගේ
වේල
විටම
පරණ
වෙතට
අවශ්යතාව
##ild
##chn
##chool
ප්රවණ
අදහසක්
බැක්ටීරියා
48
Bang
new
trans
අබ්
උසු
කදු
චැ
චේ
නළුව
වන්
##තාන්ත්රික
##දාත්මක
පොකුණ
ගොර්යෝ
කාසි
යුද්ධයට
1972
ඇතුළත
##iki
රොබට්
තිබෙනවා
අන්තර්ගතය
ලාංකීය
කථාංග
ඉතාලි
##ාහක
දඬුවම්
සිකුරු
ක්රියාකාරිත්වය
IIIවන
අමුද්රව්ය
කුරුණෑගල
##ජනයා
##න්ගෙන්
##නිල්
##ානං
වේලාව
මිට
##ලයින්
වැනිදා
දැනුවත්
මාලාවක්
විදුහ
years
කතාමාලාවේ
##ෙදී
##ගනිමින්
කරමිනි
##න්නෙ
##ේශ්
කුළු
##ital
පිටතට
##oph
නිසාවෙන්
කළමනාකරණ
සිතියම්
##resent
ලියාපදිංචි
col
ඇළ
ඔස
ගූ
චාර
චර්ය
තඹ
බඳු
රුවන්
සිත්තර
වැදි
##ern
කලු
##ංශයේ
සමගය
නිදසුන්
1982
නොහැකිය
නිපදවා
තාපය
ෆ්රැන්
57
එනිසා
සත්වය
##az
##ෆෝ
##ාවෙනි
තුඩු
them
රජවරුන්
නිර්මාණයක්
ක්රමලේඛ
කෙටික
යාමේ
සංවර්ධ
ක්රීඩාංග
කඳවුර
උපුටා
Col
මිරි
##ya
##ිකයින්
ස්තර
විසඳ
අයගේ
මතවාද
ඇතුලු
වාදනය
සැලකූ
සෙබ
පැවැත්වෙන
##pect
සංශෝධනය
නතර
බාර
##PU
නිහ
##orn
උපයා
##ාරිස්
##ීටී
International
##ually
##ත්යානුකූල
ඉරාක
චිකිත්
ඩබ්ලිව්
Pl
##ංකර
##ධර
පැස
ස්වී
දෙමින්
##පාත
කුහර
විද්යාවට
##වැට
පොලී
##ගතව
##තුරුව
පුතු
නිරව
දේශය
තාත්වික
සේවයේ
කලාපීය
විදුහල්ප
සීත
##මකට
##කාර්
##ටම්
##ඩාවේ
##ංඝ
##එන්
##හික
දිල
දීප
මුලු
##its
මුදල
1981
අල්ලාහ්
ප්රාන්තයේ
spec
කොමියුනි
##වත්ත
##බින්
අනුපිළි
සොය
නිදහ
අංශයේ
ස්ටාර්
වළක්වා
ඉවහල්
නිව්යෝර්ක්
ඉස්මතු
ශාරීරික
මිසයිල
නොසලකා
##තීය
ප්රී
##ුරේ
සංවේ
යටතට
බෙදී
1940
නිපදවීම
ආයතනයක්
IIවන
ආසාදනය
වහ
##ොඩ
##ගිර
##ෂේ
##පාක
ලබාද
##ීටර්
මුල්කාලීන
##ctor
##rig
##ages
තැත්
අවබෝධයක්
ඉතිරිව
ගෞරවය
නොකරයි
ජනාධිපතිවරයා
පාපන්දු
degree
කුසලානය
මනි
හුරු
##නාවට
##ෆා
පැති
##කරැ
මතයක්
රටෙහි
##ased
ක්ෂය
පූජනීය
රචනය
පත්රකල
52
ඇකඩ
නුව
නෝර්
වරු
වුණි
සනි
##යන්ද
කොහො
හැකිවේ
විශාලත්වය
##imb
##ike
සම්පූර්ණයෙන්
කීපය
ඇමෙරිකාවේ
පින්ත
යනාදී
සම්ප්රේෂණය
සම්පුර්ණ
අත්හදා
Bl
තන්තු
දහස
මෛ
##හෙන
##vent
##ාවය
##ම්ය
සංක්රමණ
වීදුරු
භාවිතයේ
මහජනයා
පිළිතුරු
පත්වේ
##ays
විෂම
තැපැ
සලසා
පෘතුගී
ඉක්මවා
ගම්පහ
සිංගප්ප
ගිම්හා
Americ
West
ටර්
බෝධ
මද
##ඩින්
විකුණ
කොම
සැමර
කාලයට
##පත්ති
ස්ථූප
##ම්බි
සම්බන්ධතාවය
තත්ත්වයට
##පූර්ණ
නිරවද්ය
##ient
##ේන්ද්ර
##ණ්ය
##න්තිය
දිසා
විශ්ර
1952
produ
නිමවා
නියුට්ර
South
won
කපු
නවා
මදුර
යවන
යමක්
##ධර්මය
##චර
##ියෙහි
නොසැ
##කයෙකි
රටා
රටක
##ලුම්
තේරුම
දේවස්ථානය
පරමාර්ථ
තීරු
ශාස්ත්රීය
සංකේතවත්
හරින
පරිමාණ
ඕස්ට්රේලියාව
තෙලිඟු
08
මන්
යථ
##සුරු
##එස්
##ස්සන්
##ෙන්නා
##මාලා
නිපැ
##වැලි
##ision
දුක්ඛ
##ම්බක
දේහය
මාදි
සොං
##ාවන්ගේ
ද්රෝ
අතුරුද
කෘෂිකර්මාන්ත
India
භූමියේ
ආකර්ෂණය
##ause
කොන්දේසි
තැපැල්
##ines
ජාතක
වාතය
සංගම්
රෝගීන්
##ුවක්කු
මාර්ගයක්
වැටී
ස්ත්රීන්
ඉල්ලුම
1920
පදිංච
වෝල්ටීය
Cup
pol
ශේෂ
සතිය
##ිඹු
##යද
සිදුකෙර
ප්රමාණයක
1975
පියතුමා
##කරුවන්ට
1930
තුනකට
සූර්යයා
ප්රෝටීන
ඩේවිඩ්
කොමියුනිස්ට්
600
##මෙ
වනදා
##කාරයෙන්
ජනමාධ්ය
අනුවර්
##amil
##eth
භාෂාවක්
##ures
##ows
බාධක
ඉංග්රී
සියවසේදී
where
ටැංකි
95
Wh
ආත්
නළු
##ලීමට
##කිසි
##ත්රී
##මිණී
සිරස්
සත්කාරක
අස්වැන්න
දූත
පරිපාලනය
ප්රචාරණය
ඔක්තෝම්බර්
ඇත්ද
කෞතුකාගාරය
බෙක්ජේ
##ladesh
Bangladesh
end
උන්න
සක්
##වත්ව
##eat
##ෆී
##න්දනය
##ොන්දු
##ries
අවධානයක්
අටවන
දකුණින්
differ
##ාවත්
##හුම්
##icro
කැළ
##වුඩ
##භාවයට
ලක්දිව
1986
පර්යේෂණය
සිටියදී
මරණයෙන්
දිවයිනේ
හයවන
38
නීත
පුවර
##හණ
##au
##ංගේ
ඇතිවීම
##කරයි
##සරණ
හැකිවිය
දේවල්
අසල්
178
යම්කිසි
අනාවැකි
ඇතුලත
ජ්යෙ
ඕස්ට්රේලියානු
වගේම
imp
භූගෝලීය
nowiki
සමතුලිත
##ලද
##52
පැත
නිසායි
##ලියෝ
පුෂ්ප
කලාතුර
ලියූ
කර්මාන්තයේ
ලැයිස්තු
ඵලදායී
ධනවත්
සෙන්ටි
තත්ත්වයන්
බ්රාහ්
ඉමහත්
එස
එදින
කෙන්
ධනය
පද්
##න්ට්
##ියයි
ප්රශ
සිදුරු
##සින
##ියන්ගේ
සොයාගන්නා
තත්ත්වයක්
##umb
##පීඩ
##ෑන්ක්
ගෞතම
ශාලා
පොරොන්දු
සමූහය
කිලෝමීටර්
අපනයන
ළමයින්
නල
යටි
##මෙහි
##වන්නට
##ම්මා
##දායි
##මිති
සැහැ
##හැන්
රටවලට
හැකියාවන්
ද්රව්යය
තීව්ර
ක්රියාකාරීත්වය
සරසවිය
අවලංගු
සොල්දා
51
ජොං
දන
ළඟ
##ණාත්මක
ස්ඵ
සියලූ
##වැසි
##ානයේ
අයන
##ක්රිය
inf
රූපය
රුහ
අධිපති
පාවිච්චි
ටොලමි
දාගැබ
49
both
final
no
ඛනිජ
තණ
දකින්
##ිසි
විදි
ප්රවී
කළාය
වසරෙහි
ජීවී
සම්බන්ධය
##stit
සැලකෙයි
ප්රතිශතය
උග
ඛා
චො
දාම
දඩුව
##dd
##ශික
##con
##ර්ව
විපර්
කොස්
##ැනිය
නැත්
බලකාය
බාධ
දෘෂ්ටි
##යෝජනය
බ්රහස්පති
අනිකුත්
called
අහිත
උන
එජ
එෆ්
##බේ
වනා
නොපෙන
##ානුවන්
##නේය
වන්නේය
ප්රදේශයක
පත්වීම
##ෝපැ
වහන්සේට
සැලැස්ම
ගියහ
වෙළඳපොළ
විමෝ
##වීමේදී
නිවැරදිව
ගැනිමට
උද්යාන
##ample
කතුවර
උව
ධාරා
වලිනි
##ෝද්ය
##ඩොල්
ප්රත්ය
නිවෙස්
##මික්
මහර
කාළ
නිර්මාතෘ
##ච්චාර
නාසා
##ග්රා
යාබද
යටත්වි
කාරණා
බැලීම
පූජක
ව්යවස්ථාදායක
ප්රජාතන්ත්රවාදී
තාවකාලික
Ex
##ාචාර
##හූ
##පාර
##වරට
ප්රතිබි
අයිතීන්
නිරූපනය
ක්රියාවලි
පැමිණීම
වෘත්
1945
මේවායේ
ප්රසිද්ධියට
හැදින්විය
වොෂින්
##ove
වික්රමසිංහ
නඩත්තු
number
46
will
උතුම්
ගන්නට
නින්ද
##දාව
##කයි
##ත්වයන්
දෙකකි
##කොළ
සැලැස්
##urn
නැගෙනහිරින්
ගම්ය
ධාන්ය
වැළඳ
ගැනිම
ලබාගැනීම
partic
කි්රයා
ඇන්ඩ්ර
භාර්යාව
කඩදාසි
ODI
four
set
ට්
තලය
##gram
##ඩියානු
විඳ
වැටි
නැඹුරු
කෙසේද
##cept
rem
නිකු
ක්ෂේත්රයක්
තැටි
චන්ද්රයා
තැබීම
සියල්ලම
තත්වයේ
වෛරසය
යුදෙව්වන්
පණිවිඩ
විශ්රාම
තදින්
දඹ
##ිමත්
##දියේ
##ාට
##කන
##ield
කොලො
##ත්තක්
කාඩ්
නාසි
බෙංග
වාර්ගික
අත්අඩ
##කිරීම්
වෙන්න
සීමාවන්
##usic
ගැටළුව
ගෘහස්ථ
කියැවේ
රැඳී
ඇසි
##රයක්
##ේල
##චර්
##නුත්
##ලිවුඩ්
භාවයට
ක්ලිය
නිසාත්
මාගේ
දේශසීම
ඉඩකඩ
ලබාගෙන
යුක්තය
ස්වර්ණ
එදිනෙ
කබ
තිරි
ධජ
පහන්
මෞ
ප්රතිස්ථාපනය
##ල්ලෙන්
අගයන්
අදටත්
පාසැ
බටහිරින්
ගෝරින්
කාන්තාර
ධාතුව
පිලිබඳව
සන්ධි
කුළුණ
කැණීම්
4ක්
දම්
දෙන්නේ
ෆී
##ෂල්
##විස්
නොනැ
##මිත්
සැන්
හෙයිනි
##තිවරයා
වුවහොත්
##ury
##ember
භාග්ය
තාරක
මන්ත්රීවරුන්
##ස්තානය
විශ්වවිද්යාලයේ
පැවිදි
වර්ෂාපතනය
අහිතකර
ක්ලියෝපැ
53
5ක්
63
අහි
කතර
ගෑ
##වාදි
ඉතිහාසඥ
රැජිණ
අමාත්යා
සඟරාව
ත්යාගය
චාල්ස්
ගැබ්
ආනයනය
var
අඳ
ඒම
පතිත
බැබ
රබර්
විස්ත
##ල්ම
පරිශ්ර
ප්රතිනිර්මා
වසරක්
##ටුහන්
##ගැනේ
හැඳින්වීමට
ලක්විය
උසින්
ගොඩනැඟ
මුල්ය
ස්ටී
අවකාශය
ස්මාරක
මතභේද
යටත්විජිත
එදිනෙදා
09
තුවක්කු
##ාත්මික
##නගේ
##හැක
අගභාග
වරයා
සේවාවන්
ක්රියාවලියක්
වොට්
##ible
සැළක
නිෂ්පාදිත
ධාවන
සාධකය
ඉලෙක්ට්රොනික
අවශෝෂණය
ear
මනාව
සතුරු
ෆො
##ගියේ
##ox
##yl
වියේ
කුඩු
කලෙක
අගනගර
සමාජවාදී
ස්වකීය
being
වර්තමානයේදී
ග්රහයා
matches
පැවසූයේ
ජ්යෙෂ්ඨ
sim
අැ
නග
##ණියක්
##ියර්
##ස්බ
##තිනි
##තුරා
සම්මේ
##ේෂන්
2019
1971
ගෝලය
develop
පසුබිම්
සිහසුන
about
##භූත
සනිටුහන්
58
ගමනා
හම්බ
##නින්
##ෂන
මෙක්
නිප
##සාදය
මුනි
කුඹුරු
දක්වන්නේ
නවතම
වෙනස්වීම්
වරුන්
දුරක
සෙයින්
ලක්ෂ්
ධාතූන්
තැබූ
සංකීර්ණය
කුළුණු
played
ගිවිසුමක්
am
mod
ශල්ය
##ේට
##ින්ද්ර
විවාද
වූවකි
##ිබෝධ
##න්තොට
මතකය
විශේෂයක්
##ටන්ඛ
මහායාන
කියයි
ඔබේ
##ograph
##ස්ථානික
කල්හි
පල්ලිය
ඇල්බමය
එලෙසම
ප්රසංග
ඇලෙක්සැන්ඩර්
උල්ල
චාල
##der
##ූන්ගේ
##ියං
##ුරි
##ත්වල
විටත්
කෘමි
ලාං
වැඩසටහ
තරඟය
තුනකින්
වැඩිහිටි
known
62
මොහ
##සයේ
##ධාරි
##චක
##ුණාම
ස්ට්ර
##ana
##als
ඔවුන්ව
රටට
##බ්ස්
නීත්යානුකූල
සතුන්ට
කැරලි
තෙක්ම
නිළිය
බුද්ධිමය
English
තරුණය
කටයුතුවල
ඇෆ්ගනි
App
Cricket
Fr
නියා
හදා
##ගස්
##ෙන්ද
ප්රමිත
සමන්
අවධාන
##සරය
ජීවින්
ලිහි
යොදාගනී
##ාන්ති
අවශ්යතාවය
##ගුප්ත
ලොකු
##owl
ක්රමයකි
##ටියෙන්
විකාශන
ලක්ෂණයක්
ඉල්ලීම
##ම්මද්
පිලිබදව
ආභරණ
පන්දුව
පරිච්ඡේද
සිසුවෙකි
Afric
id
වංශය
##මාලාව
අවදානම්
කාලතුව
මතට
යොදාගත්
කෙතරම්
බෙදීම
අරගලය
සමහරවිට
යන්නෙහි
##ෝනියා
ඉදිකළ
ද්විත්වය
දේශගුණික
අත්අඩංගුවට
එයි
තමිල්
##ෙති
##ල්ගේ
ප්රත්
පරිපූර්ණ
සියයට
ප්රතිලාභ
##වීර
##ider
පීඩා
චලිත
භ්රමණය
මාළිග
66
##ුමක්
##බාල
සහා
##හුල
then
සුබ
##ished
##මැතිය
ව්යාපාරයේ
ග්රහණය
මොවුන්ගේ
කරගත්තේ
ශරීරයේ
විරෝධය
ගවේෂණ
ජනරජය
Comp
ඇසුරෙන්
ජෙනරාල්
Pak
Zimb
කාය
ජොන්
ඩෙල්
දීමේ
##තනා
##ුක
##iew
##lor
##ma
##hip
##40
බිල්
සේක
හෙලි
නගරයකි
##ලෝන්
මුළුමනින්
වැටීම
##abwe
අවධානයට
United
නේපාල
ලිපියක්
බැංකුව
දකින
ආසියාතික
දිලීර
Zimbabwe
act
if
බද්ධ
ලඟා
##ලතා
##වෙනි
##ෂාන්
##ඩම්
##ිරීම
නොවීම
වලසුන්
these
අධී
බලවේග
එකවර
වර්ගයකි
නිර්වා
නාමයන්
any
##ුරාදා
##ගෝලය
සඟර
බෙහෙත්
උත්සහ
මිතුරන්
නිම්න
නළුවා
Pakistan
mar
pe
ඌව
ගතික
සවික
ෆ්
##වංශ
##ata
මාත්ර
ග්රා
ආකාරයක්
##rop
##andard
බිහිවූ
සෑදී
නිසාවෙනි
රෙජි
වියදම
දුටුගැ
ඉසව්
කෞතුකාගාරයේ
ගැටලුව
found
ඌර්
දක
නදිය
මුද්
##කීර්
සැකි
##යින්ට
චිත්රපටයට
අභිබ
කලාත්මක
##ript
ක්රියාවට
පැමිණිය
එහෙයින්
##ists
සාමාජිකත්වය
රූපවාහිනිය
ප්රහාරක
example
බැලීමට
##ically
සබද
සැබැ
එංගලන්තය
පසුබිම
award
ඔපෙර
ඩ්ර
ධම්ම
මක්
වතාවක්
ෂා
ෆොන්
පිළිබිඹු
බිද
##ජනනය
##කයින්ගේ
පන්තිය
චක්රය
බලපායි
දුටුගැමුණු
mon
උගත්
කම
මල්ල
##ශු
##TE
##තිලක
බලකා
පාණ්ඩ
බ්රසී
කණ්ඩායමට
කාර්යයක්
##imes
අධ්යයනයන්
වෘත්තා
මිනිසුන්ගේ
කැනඩාව
වසංග
නෞකා
56
69
77
ICC
##දික
##බලය
##gan
පිහිටු
අසුර
ස්ථානගත
කොට්ඨාශයෙහි
ශ්රේණිය
දැමූ
මෙහෙයවන
ගලවා
lead
ප්රවේණි
tournam
ක්වොන්
ඇන
##යම්
##ජාන
##ඳා
##ss
##ස්පර
වැර
කොංග්ර
දිළි
සුඛ
සමාජයට
පැහැය
අධ්යාපනික
නියෝජ්ය
මිනිසුන්ට
හිට්ලර්ගේ
බැලූ
එවක
class
නිශ්ශ
අක්නාටන්
par
ඒමට
සග
##තැන
##ෝක්
##ේෂ්
##ෑටි
එයාර්
දුර්ග
මාක්ස්
ශිෂ්ඨ
හැකියි
ආගමේ
##ull
පක්ෂපා
සටනේ
බ්රිතාන්යයේ
පුද්ගලයෙක්
දෙපස
පැතිරී
ආයුර්
කන්යා
Ass
කුමක්ද
Comm
පොළොන්නරුව
දීප්තිමත්
නැත්නම්
co
අම්ප
##මයේ
##ොළ
##ටියන්
##ඝා
##දුම
##තාවයට
රැහැන්
පාලනයක්
##aster
මූලස්ථානය
අසී
අසමත්
1974
යුරේ
ජනගහනයෙන්
##ලිකන්
අකුර
ධාරාව
අහෝ
අවුරුද්ද
නිරන්තරයෙන්
අත්ත
කුවේ
ජෙර
නිරි
බංග
##හක්
##ole
##ww
අනෙක
ව්යාජ
පත්කරන
මාළු
ගැනීමත්
තේමාව
##ිකාවක
ප්රභවය
යෝජනාව
අර්ධද්වීපය
ජිවිත
කළුතර
ඡන්දය
සූත්රය
##overn
ජලාශ
ගසා
වලි
සව
සාරා
##PA
##ියෙක්
විරා
##ීමය
සංඛ
සමස්ථානික
මිත්යා
වානිජ
##කෘත
පියාසර
පෞරු
ශාස්ත්රය
##්වනි
##rough
නොලැබේ
අත්යාව
ඉතාලිය
නිවාඩු
පුරාවෘත්ත
ලද්දකි
E0
ඩෙන්
හ්ය
##නියන්
##දීන්
##ට්ගේ
##මුහ
##වියන්
පොට
සම්බන්ධයක්
හරස්
සේවයට
විමසා
අභිප්ර
වේදනා
වංශයේ
ප්රශ්නය
ප්ලේ
##ization
කැරැල්ල
59
www
##ුස්
##ුදය
##ට්ෂ
කිරීමෙනි
මේජර්
යොදන
ක්රියාවක්
1962
ලැබූයේ
ඩිස්
දෙදෙනාම
ජනයාගේ
ආසන්නව
ටයිම්ස්
නයිට්රජන්
දර්පණ
72
women
ඇරි
උචිත
දෙන්න
නන්ද
වරා
සබ්
##ැල්ල
##බඳු
සහයෝගී
##ටිටි
තරණය
දේශයේ
අවශ්යය
වර්ධනයක්
ක්රීඩකයා
සැකසීම
වැටෙන
ස්වරූපයක්
##ගත්තේය
අක්නාටන්ගේ
පෝලන්ත
ව්යුත්පන්න
කාලතුවක්කු
Be
world
නතු
සක්රීය
##ලෙන
##සුණු
##und
##ාරණය
##නිස්
##වරය
##රාණික
ලැබෙයි
කලකට
හේතූන්
##ames
රාමු
ප්රමාණයට
නීතියට
ග්රන්ථයේ
##ජීව
ගාන්ධ
##ාරාමය
එකතුවක්
මත්ද්රව්ය
ගනේෂ
##ශාලා
සම්ප්රදායන්
පැවසුවේ
දමිළ
අම්පාර
qual
අල්ප
කන්න
##වරයාගේ
##මේය
සමීකරණය
##දැම
අරාබ
##මීටර
මුහුදේ
පොරො
න්යායන්
runs
ආරාධනා
කතරගම
##ටන්ඛාම
dist
elect
ඉඳ
ඉංග
ඵලය
##නත
##ෙමි
##ton
##කරනු
##ලිමත්
අනවශ්ය
දිනපතා
##වුම
සුර්ය
##row
රෝහල්
තොරතුර
1968
පෞරාණික
විද්යාලයට
එල්ට
නොදන්නා
කීර්ති
පුරවැසියන්
common
case
law
ඉවුර
දූර
##ගන්නේ
##ted
ප්රග
කොඩිය
##ලාකාර
හිඳ
##ටිං
කෙරෙන්නේ
දේශගුණය
##ety
නිෂ්පාදක
මට්ටමින්
ස්ථානවල
පරාසය
සාර්ථකත්වය
කිහිපයකි
##මානුකූල
ධාරිතාව
රඟපෑ
ඕස්ට්රේලියාවේ
මාලිගයේ
මුදාහැර
දෛනික
නිර්මිත
Car
අහස
දිරි
##ලභ
##ැඹ
##ර්ත
##යන්ය
##ෝගී
අනුමැතිය
දුන්න
අමතක
හඳුන්වන්නේ
ref
නිලධාරී
ත්රස්තවාදී
සල්ෆ
සෘජුවම
කැල්සියම්
අත්යාවශ්ය
41
CPU
same
අවාස
ආභා
ටූ
##ොග්
##ෙකින්
##ience
##වාය
කොල්ල
උපත්
කාශ්ය
##වූහ
පිරිමින්
##ජිත්
176
1969
නෙදර්
පලස්ත
ක්රීඩකයන්
සාධකයක්
අරමුණින්
ඔක්තො
##බුක්
ගැලපෙන
පරාසයක
අඛණ්ඩව
sm
ඇග
ජන්
##කස්
##පතේ
##5දී
##AS
ක්රමා
විසඳු
සාධනය
##ince
පරිමාව
තිබෙයි
##හැම්
යොං
##මන්ඩ්
හෙල
සියවසට
මාර්ගයෙන්
ද්වාර
බලාගාර
සංකේතය
සැළකිය
සැළකේ
බලාපොරො
අරමුදල්
ස්වදේශික
ආත්මය
හම්බන්තොට
giv
made
උගන්
ඍජුව
ගන්ධ
සබර
##තාවේ
##ටස්
පිදුම්
##ත්වැ
##න්දුව
පරිහා
##වැත්
මැග්
පුපුර
වාර්තාවක්
පර්සියානු
ප්රභේදය
ඉරාකය
සංස්ථාව
පාර්ශවය
රීති
second
ඇගය
නැන
##මද
##නක
##බන්
##ළුන්
දක්වමින්
ගැමි
දිනකට
දියවැ
පත්වී
##rid
##rix
වෙන්ව
හැරී
උදෑ
දායකත්වයක්
සමීක්ෂණ
යුරෝපියානු
නිරීක්ෂ
එතෙක්
සිරුරේ
